{
  "version": "1.0",
  "truncation": null,
  "padding": null,
  "added_tokens": [
    {
      "id": 0,
      "content": "<PAD>",
      "single_word": false,
      "lstrip": false,
      "rstrip": false,
      "normalized": false,
      "special": true
    },
    {
      "id": 1,
      "content": "<UNK>",
      "single_word": false,
      "lstrip": false,
      "rstrip": false,
      "normalized": false,
      "special": true
    },
    {
      "id": 2,
      "content": "<BOS>",
      "single_word": false,
      "lstrip": false,
      "rstrip": false,
      "normalized": false,
      "special": true
    },
    {
      "id": 3,
      "content": "<EOS>",
      "single_word": false,
      "lstrip": false,
      "rstrip": false,
      "normalized": false,
      "special": true
    }
  ],
  "normalizer": null,
  "pre_tokenizer": {
    "type": "ByteLevel",
    "add_prefix_space": false,
    "trim_offsets": true,
    "use_regex": true
  },
  "post_processor": null,
  "decoder": {
    "type": "ByteLevel",
    "add_prefix_space": true,
    "trim_offsets": true,
    "use_regex": true
  },
  "model": {
    "type": "BPE",
    "dropout": null,
    "unk_token": "<UNK>",
    "continuing_subword_prefix": null,
    "end_of_word_suffix": null,
    "fuse_unk": false,
    "byte_fallback": false,
    "ignore_merges": false,
    "vocab": {
      "<PAD>": 0,
      "<UNK>": 1,
      "<BOS>": 2,
      "<EOS>": 3,
      "!": 4,
      "\"": 5,
      "#": 6,
      "$": 7,
      "%": 8,
      "&": 9,
      "'": 10,
      "(": 11,
      ")": 12,
      "*": 13,
      "+": 14,
      ",": 15,
      "-": 16,
      ".": 17,
      "/": 18,
      "0": 19,
      "1": 20,
      "2": 21,
      "3": 22,
      "4": 23,
      "5": 24,
      "6": 25,
      "7": 26,
      "8": 27,
      "9": 28,
      ":": 29,
      ";": 30,
      "<": 31,
      "=": 32,
      ">": 33,
      "?": 34,
      "@": 35,
      "A": 36,
      "B": 37,
      "C": 38,
      "D": 39,
      "E": 40,
      "F": 41,
      "G": 42,
      "H": 43,
      "I": 44,
      "J": 45,
      "K": 46,
      "L": 47,
      "M": 48,
      "N": 49,
      "O": 50,
      "P": 51,
      "Q": 52,
      "R": 53,
      "S": 54,
      "T": 55,
      "U": 56,
      "V": 57,
      "W": 58,
      "X": 59,
      "Y": 60,
      "Z": 61,
      "[": 62,
      "\\": 63,
      "]": 64,
      "^": 65,
      "_": 66,
      "`": 67,
      "a": 68,
      "b": 69,
      "c": 70,
      "d": 71,
      "e": 72,
      "f": 73,
      "g": 74,
      "h": 75,
      "i": 76,
      "j": 77,
      "k": 78,
      "l": 79,
      "m": 80,
      "n": 81,
      "o": 82,
      "p": 83,
      "q": 84,
      "r": 85,
      "s": 86,
      "t": 87,
      "u": 88,
      "v": 89,
      "w": 90,
      "x": 91,
      "y": 92,
      "z": 93,
      "{": 94,
      "|": 95,
      "}": 96,
      "~": 97,
      "¡": 98,
      "¢": 99,
      "£": 100,
      "¤": 101,
      "¥": 102,
      "¦": 103,
      "§": 104,
      "¨": 105,
      "©": 106,
      "ª": 107,
      "«": 108,
      "¬": 109,
      "®": 110,
      "¯": 111,
      "°": 112,
      "±": 113,
      "²": 114,
      "³": 115,
      "´": 116,
      "µ": 117,
      "¶": 118,
      "·": 119,
      "¸": 120,
      "¹": 121,
      "º": 122,
      "»": 123,
      "¼": 124,
      "½": 125,
      "¾": 126,
      "¿": 127,
      "Â": 128,
      "Ã": 129,
      "Ä": 130,
      "Å": 131,
      "Æ": 132,
      "Ç": 133,
      "È": 134,
      "É": 135,
      "Ê": 136,
      "Ë": 137,
      "Ì": 138,
      "Í": 139,
      "Î": 140,
      "Ï": 141,
      "Ð": 142,
      "Ñ": 143,
      "Ò": 144,
      "Ó": 145,
      "Ô": 146,
      "Õ": 147,
      "Ö": 148,
      "×": 149,
      "Ø": 150,
      "Ù": 151,
      "Ú": 152,
      "Û": 153,
      "Ü": 154,
      "Ý": 155,
      "Þ": 156,
      "ß": 157,
      "à": 158,
      "á": 159,
      "â": 160,
      "ã": 161,
      "ä": 162,
      "å": 163,
      "æ": 164,
      "ç": 165,
      "è": 166,
      "é": 167,
      "ê": 168,
      "ë": 169,
      "ì": 170,
      "í": 171,
      "î": 172,
      "ï": 173,
      "ð": 174,
      "ñ": 175,
      "ò": 176,
      "ó": 177,
      "ô": 178,
      "Ā": 179,
      "ā": 180,
      "Ă": 181,
      "ă": 182,
      "Ą": 183,
      "ą": 184,
      "Ć": 185,
      "ć": 186,
      "Ĉ": 187,
      "ĉ": 188,
      "Ċ": 189,
      "ċ": 190,
      "Č": 191,
      "Ď": 192,
      "ď": 193,
      "Đ": 194,
      "đ": 195,
      "Ē": 196,
      "ē": 197,
      "Ĕ": 198,
      "ĕ": 199,
      "Ė": 200,
      "ė": 201,
      "Ę": 202,
      "ę": 203,
      "Ě": 204,
      "ě": 205,
      "Ĝ": 206,
      "ĝ": 207,
      "Ğ": 208,
      "ğ": 209,
      "Ġ": 210,
      "ġ": 211,
      "Ģ": 212,
      "ģ": 213,
      "Ĥ": 214,
      "ĥ": 215,
      "Ħ": 216,
      "ħ": 217,
      "Ĩ": 218,
      "ĩ": 219,
      "Ī": 220,
      "ī": 221,
      "Ĭ": 222,
      "ĭ": 223,
      "Į": 224,
      "į": 225,
      "İ": 226,
      "ı": 227,
      "Ĳ": 228,
      "ĳ": 229,
      "Ĵ": 230,
      "ĵ": 231,
      "Ķ": 232,
      "ķ": 233,
      "ĸ": 234,
      "Ĺ": 235,
      "ĺ": 236,
      "Ļ": 237,
      "ļ": 238,
      "Ľ": 239,
      "ľ": 240,
      "Ŀ": 241,
      "ŀ": 242,
      "Ł": 243,
      "ł": 244,
      "Ń": 245,
      "ĠĠ": 246,
      "ĠĠĠĠ": 247,
      "in": 248,
      "ĠĠĠ": 249,
      "int": 250,
      "Ġ=": 251,
      "ĊĠĠĠĠ": 252,
      "ĊĠĠĠ": 253,
      "st": 254,
      "Ġi": 255,
      "re": 256,
      "de": 257,
      "Ġ<": 258,
      "or": 259,
      ");": 260,
      "Ċĉ": 261,
      "on": 262,
      "Ġc": 263,
      "Ġ(": 264,
      "Ġ{": 265,
      "Ġa": 266,
      "Ġl": 267,
      "ĊĠĠĠĠĠĠĠ": 268,
      "Ġn": 269,
      "Ġ}": 270,
      "()": 271,
      "se": 272,
      "Ġre": 273,
      "Ġf": 274,
      "Ġm": 275,
      "def": 276,
      "ĊĠĠĠĠĠĠĠĠ": 277,
      "Ġ0": 278,
      "ut": 279,
      "ur": 280,
      "Ġ1": 281,
      "cl": 282,
      "en": 283,
      "00": 284,
      "ĊĠ": 285,
      "ine": 286,
      "tur": 287,
      "turn": 288,
      "++": 289,
      "at": 290,
      "Ġp": 291,
      "Ġ<<": 292,
      "Ċĉĉ": 293,
      "Ġint": 294,
      "Ġs": 295,
      "clu": 296,
      "inclu": 297,
      "Ġv": 298,
      "include": 299,
      "define": 300,
      "--": 301,
      "Ġb": 302,
      "//": 303,
      "Ġif": 304,
      "ll": 305,
      "er": 306,
      "Ġ>": 307,
      "ct": 308,
      "){": 309,
      "it": 310,
      "ong": 311,
      "Ġ+": 312,
      "ing": 313,
      "Ġfor": 314,
      "Ġreturn": 315,
      "std": 316,
      "an": 317,
      "am": 318,
      "Ġt": 319,
      "ãģ": 320,
      "Ġ-": 321,
      "ĊĠĠĠĠĠĠĠĠĠĠĠ": 322,
      "out": 323,
      "mp": 324,
      "end": 325,
      "ĠĠĠĠĠĠĠĠ": 326,
      "Ġd": 327,
      "le": 328,
      "us": 329,
      "Ġlong": 330,
      "ect": 331,
      "][": 332,
      "ac": 333,
      "Ġr": 334,
      "al": 335,
      "ector": 336,
      "Ġ\"": 337,
      "];": 338,
      "Ġma": 339,
      "if": 340,
      "Ġx": 341,
      "nt": 342,
      "ue": 343,
      "Ġin": 344,
      "con": 345,
      "Ġ*": 346,
      "Ġ>>": 347,
      "ar": 348,
      "Ġ&": 349,
      "yp": 350,
      "<<": 351,
      "Ġ==": 352,
      "el": 353,
      "ame": 354,
      "..": 355,
      "Ġll": 356,
      "um": 357,
      "si": 358,
      "ĠT": 359,
      "id": 360,
      "str": 361,
      "ou": 362,
      "ge": 363,
      "else": 364,
      "==": 365,
      "ir": 366,
      "Ġan": 367,
      "using": 368,
      "typ": 369,
      "();": 370,
      "ĠĠĠĠĠĠĠ": 371,
      "sp": 372,
      "Ġj": 373,
      "for": 374,
      "Ġstd": 375,
      "Ċĉĉĉ": 376,
      "rint": 377,
      "endl": 378,
      "ma": 379,
      "++)": 380,
      "ze": 381,
      "----": 382,
      "Ġcout": 383,
      "0000": 384,
      "))": 385,
      "ĊĊ": 386,
      "ate": 387,
      "ĠM": 388,
      "Ġans": 389,
      "return": 390,
      "hi": 391,
      "emp": 392,
      "oo": 393,
      "ãĤ": 394,
      "as": 395,
      "::": 396,
      "ĊĠĠĠĠĠ": 397,
      "od": 398,
      "Ġ2": 399,
      "const": 400,
      "Ġcin": 401,
      "ace": 402,
      ">>": 403,
      "ic": 404,
      "op": 405,
      "ĠN": 406,
      "Ġmain": 407,
      "ex": 408,
      "Ġvector": 409,
      "type": 410,
      "eg": 411,
      "ĊĠĠĠĠĠĠĠĠĠĠĠĠĠĠĠ": 412,
      "size": 413,
      "io": 414,
      "put": 415,
      "oid": 416,
      "**": 417,
      "vector": 418,
      "??": 419,
      "Ġname": 420,
      "empl": 421,
      "ow": 422,
      "Ġk": 423,
      "(\"": 424,
      "space": 425,
      "ist": 426,
      "Ġendl": 427,
      "Ġnamespace": 428,
      "Ġw": 429,
      "].": 430,
      "ort": 431,
      "string": 432,
      "ĠS": 433,
      "])": 434,
      "ream": 435,
      "Ġy": 436,
      "ĠA": 437,
      "emplate": 438,
      "Ġ%": 439,
      "Ġelse": 440,
      "Ġcon": 441,
      "ass": 442,
      "Ġ+=": 443,
      "Ġ//": 444,
      "ĊĊĠĠĠ": 445,
      "ans": 446,
      "ble": 447,
      "os": 448,
      "Ġ'": 449,
      "typedef": 450,
      "template": 451,
      "ed": 452,
      "air": 453,
      "())": 454,
      "__": 455,
      "!=": 456,
      "ack": 457,
      "Ġrep": 458,
      "egin": 459,
      "hile": 460,
      "stream": 461,
      "],": 462,
      "Ġu": 463,
      "begin": 464,
      "set": 465,
      "tr": 466,
      "\",": 467,
      "bit": 468,
      "ch": 469,
      "Ġ<=": 470,
      "ri": 471,
      "Ġ:": 472,
      "ĠI": 473,
      "print": 474,
      "ool": 475,
      "cout": 476,
      "ush": 477,
      "]=": 478,
      "ap": 479,
      "ouble": 480,
      "ti": 481,
      "LL": 482,
      "ange": 483,
      "ãĥ": 484,
      "):": 485,
      "ext": 486,
      "Ġconst": 487,
      "(),": 488,
      "Ġprint": 489,
      "++){": 490,
      "ad": 491,
      "ĠP": 492,
      "ator": 493,
      "10": 494,
      "Ġres": 495,
      "Ġg": 496,
      "--------": 497,
      "back": 498,
      "alse": 499,
      "ĊĠĠĠĠĠĠĠĠĠĠĠĠĠĠĠĠ": 500,
      "cin": 501,
      "ub": 502,
      "Ġ&&": 503,
      "++;": 504,
      "),": 505,
      "erator": 506,
      "class": 507,
      "Ġ/": 508,
      "bits": 509,
      "ount": 510,
      "Ġmod": 511,
      "Ġrange": 512,
      "irst": 513,
      "++.": 514,
      "99": 515,
      "long": 516,
      "stdc": 517,
      "ĠR": 518,
      "max": 519,
      "void": 520,
      "Ġ!=": 521,
      "ve": 522,
      "Ġst": 523,
      "que": 524,
      "ename": 525,
      ").": 526,
      "Ġh": 527,
      "OD": 528,
      "can": 529,
      "ew": 530,
      "));": 531,
      "em": 532,
      "cond": 533,
      "]);": 534,
      "uto": 535,
      "[]": 536,
      "////": 537,
      "Ġch": 538,
      "ith": 539,
      ";}": 540,
      "second": 541,
      "().": 542,
      "lic": 543,
      "operator": 544,
      "ra": 545,
      "<=": 546,
      "is": 547,
      "map": 548,
      "ĠF": 549,
      "ĠB": 550,
      "Ċĉĉĉĉ": 551,
      "Ġ3": 552,
      "push": 553,
      "lit": 554,
      "om": 555,
      "ĠĠĠĠĠĠĠĠĠĠĠĠĠĠĠĠ": 556,
      "Ġwhile": 557,
      "Ġe": 558,
      "Ġ++": 559,
      "Int": 560,
      "ublic": 561,
      "ol": 562,
      "Ġvoid": 563,
      "ion": 564,
      "Ġmax": 565,
      "Ġdp": 566,
      "input": 567,
      "un": 568,
      "ĠC": 569,
      "Ġpair": 570,
      "EP": 571,
      "mport": 572,
      "(){": 573,
      "line": 574,
      "get": 575,
      "min": 576,
      "##": 577,
      "ak": 578,
      "ul": 579,
      "????": 580,
      "rue": 581,
      "Ġnew": 582,
      "****": 583,
      "ãģ®": 584,
      "es": 585,
      "NF": 586,
      "ode": 587,
      "Ġmin": 588,
      "len": 589,
      "num": 590,
      "atic": 591,
      "split": 592,
      "((": 593,
      "};": 594,
      "...": 595,
      "Ġ>=": 596,
      "(\"%": 597,
      "ath": 598,
      "stdio": 599,
      "il": 600,
      "ĊĠĠ": 601,
      "<<\"": 602,
      "th": 603,
      "typename": 604,
      "ĠMOD": 605,
      "Ġoperator": 606,
      "ig": 607,
      "Ġar": 608,
      "....": 609,
      "first": 610,
      "Ġo": 611,
      "\";": 612,
      "Ġ_": 613,
      "dp": 614,
      "reak": 615,
      "iostream": 616,
      "||": 617,
      "Ġsum": 618,
      "ce": 619,
      "``": 620,
      "Ġdouble": 621,
      "aa": 622,
      "ke": 623,
      "33": 624,
      "ray": 625,
      "Ġq": 626,
      "=(": 627,
      "pair": 628,
      "val": 629,
      "Ġinput": 630,
      "Ġtrue": 631,
      "me": 632,
      "')": 633,
      "64": 634,
      "ase": 635,
      "00000000": 636,
      "next": 637,
      "import": 638,
      "his": 639,
      "ĊĠĠĠĠĠĠĠĠĠĠĠĠĠĠĠĠĠĠĠ": 640,
      "rt": 641,
      "bool": 642,
      "Ġ[": 643,
      "ĠL": 644,
      "tring": 645,
      "Ġ#": 646,
      "Ġfalse": 647,
      "auto": 648,
      "ht": 649,
      "to": 650,
      "sum": 651,
      "11": 652,
      "ĊĊĠ": 653,
      "âĸ": 654,
      "gn": 655,
      "ĉĉ": 656,
      "ize": 657,
      "Ġcnt": 658,
      "char": 659,
      "AX": 660,
      "rep": 661,
      "ĠD": 662,
      "ec": 663,
      "Ġde": 664,
      "mod": 665,
      "55": 666,
      "Ġbool": 667,
      "());": 668,
      "+=": 669,
      "cd": 670,
      "ind": 671,
      "bu": 672,
      "bs": 673,
      "Ġret": 674,
      "Ġcl": 675,
      "Ġnum": 676,
      "Ġ?": 677,
      "Ġstatic": 678,
      "while": 679,
      "res": 680,
      "co": 681,
      "Ġse": 682,
      "queue": 683,
      "ĠINF": 684,
      "cnt": 685,
      "ĠU": 686,
      "sy": 687,
      "tie": 688,
      "count": 689,
      "77": 690,
      "public": 691,
      "la": 692,
      "nd": 693,
      "ĠV": 694,
      "tin": 695,
      "Ġ;": 696,
      "====": 697,
      "stem": 698,
      "act": 699,
      "&&": 700,
      "sign": 701,
      "up": 702,
      "ĠREP": 703,
      ")(": 704,
      "ãĤĴ": 705,
      "OR": 706,
      "list": 707,
      "ystem": 708,
      "âķ": 709,
      "]==": 710,
      "Ġbreak": 711,
      "ãĤĭ": 712,
      "100": 713,
      "\")": 714,
      "Ġtmp": 715,
      "12": 716,
      "Ġsort": 717,
      "Ġto": 718,
      "Ġclass": 719,
      "53": 720,
      "Ġmap": 721,
      "oint": 722,
      "Ġval": 723,
      "----------------": 724,
      "ver": 725,
      "Ġ||": 726,
      "gor": 727,
      "Ġstring": 728,
      "double": 729,
      "ithm": 730,
      "gorithm": 731,
      "pr": 732,
      ">(": 733,
      ">;": 734,
      "av": 735,
      "algorithm": 736,
      "fr": 737,
      "ãĢ": 738,
      "this": 739,
      "Ġis": 740,
      "nc": 741,
      "der": 742,
      "Ġ4": 743,
      "canf": 744,
      "ft": 745,
      "tinue": 746,
      "âķ¬": 747,
      "Ġcount": 748,
      "ree": 749,
      "err": 750,
      "false": 751,
      "->": 752,
      "app": 753,
      "32": 754,
      ">=": 755,
      "Ġ10": 756,
      "ĠG": 757,
      "////////": 758,
      "ii": 759,
      "signed": 760,
      "Ġsize": 761,
      "im": 762,
      "with": 763,
      "Ġco": 764,
      "cm": 765,
      "\");": 766,
      "ner": 767,
      "ff": 768,
      "ava": 769,
      "âķ¬âķ¬": 770,
      "Ġ((": 771,
      "sync": 772,
      "Ġ__": 773,
      "ĊĊĉ": 774,
      "Ġjava": 775,
      "olve": 776,
      "Ġ5": 777,
      "dex": 778,
      "ĊĊĠĠĠĠĠĠĠ": 779,
      "lf": 780,
      "ent": 781,
      "Ġpri": 782,
      "canner": 783,
      "';": 784,
      "Ġ-=": 785,
      "all": 786,
      "IN": 787,
      "sert": 788,
      "]-": 789,
      "String": 790,
      "append": 791,
      "Ġtyp": 792,
      "Ġit": 793,
      "gth": 794,
      "ta": 795,
      "ight": 796,
      "fs": 797,
      "No": 798,
      "edge": 799,
      "Ġun": 800,
      "ast": 801,
      "ĠH": 802,
      "ĠK": 803,
      "lo": 804,
      "Ġ7": 805,
      "æķ": 806,
      "MAX": 807,
      "Ġ100000000": 808,
      "cep": 809,
      "Yes": 810,
      "]+": 811,
      "oot": 812,
      "âĸĪ": 813,
      "Ġ)": 814,
      "lag": 815,
      "Ġlen": 816,
      "Ġ,": 817,
      "--;": 818,
      "red": 819,
      "pp": 820,
      "of": 821,
      "gs": 822,
      "Ġsc": 823,
      "uct": 824,
      "--)": 825,
      "********": 826,
      "Ġstr": 827,
      "æķ°": 828,
      "Ġgcd": 829,
      "ln": 830,
      "Ġout": 831,
      "Ġos": 832,
      "are": 833,
      "Ġauto": 834,
      "ĠW": 835,
      "Ġget": 836,
      "tmp": 837,
      "Ġpublic": 838,
      "ult": 839,
      "Ġnext": 840,
      "he": 841,
      "Ġcontinue": 842,
      "*(": 843,
      "length": 844,
      "sort": 845,
      "44": 846,
      "ostream": 847,
      "Ġlist": 848,
      "ata": 849,
      "pre": 850,
      "Ġ*=": 851,
      "Ġset": 852,
      "ower": 853,
      "18": 854,
      "('": 855,
      "expr": 856,
      "ãģ«": 857,
      "Ġmake": 858,
      "Ġ6": 859,
      "System": 860,
      "inline": 861,
      "Ġchar": 862,
      "ound": 863,
      "ãģĻ": 864,
      "Ġfi": 865,
      "ment": 866,
      "pri": 867,
      "now": 868,
      "........": 869,
      ",-": 870,
      "Ġfirst": 871,
      "pop": 872,
      "Ġpush": 873,
      "Ġand": 874,
      "rray": 875,
      "par": 876,
      "ĊĠĠĠĠĠĠĠĠĠ": 877,
      "Ġall": 878,
      "MM": 879,
      "ĊĠĠĠĠĊĠĠĠ": 880,
      "88": 881,
      "Ġsolve": 882,
      "tion": 883,
      "####": 884,
      "eger": 885,
      "ip": 886,
      "read": 887,
      "Ġmint": 888,
      "20": 889,
      "Ġios": 890,
      "ot": 891,
      "ãģ§": 892,
      "Ġmp": 893,
      "ĠE": 894,
      "ĠX": 895,
      "inv": 896,
      "Ġtypename": 897,
      "hs": 898,
      "ĠMod": 899,
      "pos": 900,
      "????????": 901,
      "fi": 902,
      "ãģĦ": 903,
      "Ġsz": 904,
      "ull": 905,
      "Ġz": 906,
      "15": 907,
      "AR": 908,
      "ĠFOR": 909,
      "()))": 910,
      "abs": 911,
      "Ġprintf": 912,
      "000": 913,
      "println": 914,
      "9999": 915,
      "]]": 916,
      "âĸĪâĸĪ": 917,
      ")]": 918,
      "vec": 919,
      "art": 920,
      "te": 921,
      "aaaa": 922,
      "value": 923,
      "ĠĠĠĠĠĠĠĠĠĠĠ": 924,
      "Ġinline": 925,
      "````": 926,
      "<(": 927,
      "57": 928,
      "cur": 929,
      "Ġvec": 930,
      "Ġ1000000007": 931,
      "from": 932,
      "bug": 933,
      "nextInt": 934,
      "26": 935,
      "åĪ": 936,
      "<<(": 937,
      "cmath": 938,
      "node": 939,
      "Ġdist": 940,
      "14": 941,
      "Ġ\";": 942,
      "ys": 943,
      ")%": 944,
      "vate": 945,
      "ction": 946,
      ")/": 947,
      "util": 948,
      "sion": 949,
      "37": 950,
      ">&": 951,
      "22": 952,
      "\"<<": 953,
      "MOD": 954,
      "pb": 955,
      "VA": 956,
      "ception": 957,
      "struct": 958,
      "Ġscanf": 959,
      "Ġ9": 960,
      "rap": 961,
      "ãģª": 962,
      "printf": 963,
      "dd": 964,
      ")-": 965,
      "ĊĉĊ": 966,
      "vi": 967,
      ");}": 968,
      "raph": 969,
      "base": 970,
      "Ġabs": 971,
      "Ġvi": 972,
      "verse": 973,
      "xception": 974,
      "St": 975,
      "ĠĠĠĠĠ": 976,
      "Ġpb": 977,
      "arr": 978,
      "10000": 979,
      "ãģ¨": 980,
      "Ġsecond": 981,
      "Ġcerr": 982,
      "/*": 983,
      "uple": 984,
      "Ġread": 985,
      "idx": 986,
      "========": 987,
      "ity": 988,
      "In": 989,
      "Ġle": 990,
      "GS": 991,
      "ĠString": 992,
      "(!": 993,
      "INF": 994,
      "ãģĮ": 995,
      "Ġ\"<<": 996,
      "Ġ(!": 997,
      "lld": 998,
      "ty": 999,
      "ab": 1000,
      "li": 1001,
      "ĠMa": 1002,
      "Exception": 1003,
      "ber": 1004,
      "ok": 1005,
      "index": 1006,
      "Ġmem": 1007,
      "*/": 1008,
      "add": 1009,
      "æľ": 1010,
      "Ġself": 1011,
      "ĠĠĠĠĠĠĠĠĠĠĠĠĠĠĠĠĠĠĠĠĠĠĠĠĠĠĠĠĠĠĠĠ": 1012,
      "Ġmid": 1013,
      "row": 1014,
      "and": 1015,
      "(-": 1016,
      "ader": 1017,
      "eck": 1018,
      "arent": 1019,
      "]){": 1020,
      "ES": 1021,
      "Re": 1022,
      "qu": 1023,
      "able": 1024,
      "ci": 1025,
      "ation": 1026,
      "89": 1027,
      "@@": 1028,
      "19": 1029,
      "static": 1030,
      "Ġdfs": 1031,
      "List": 1032,
      "ARGS": 1033,
      "Ġargs": 1034,
      "left": 1035,
      "ret": 1036,
      "cstdio": 1037,
      "stack": 1038,
      "ãĥ¼": 1039,
      "Ġunsigned": 1040,
      "pow": 1041,
      "ĊĠĠĊĠ": 1042,
      "Ġth": 1043,
      "\",&": 1044,
      "dered": 1045,
      "cost": 1046,
      "():": 1047,
      "ĊĠĠĠĠĠĠĠĠĠĠĠĠĠĠĠĠĠĠĠĠĠĠĠ": 1048,
      "ĠMAX": 1049,
      "ordered": 1050,
      "ps": 1051,
      "imit": 1052,
      "ĠO": 1053,
      "ĠLL": 1054,
      "xx": 1055,
      "Ġid": 1056,
      "lean": 1057,
      "Ġend": 1058,
      "ey": 1059,
      "oolean": 1060,
      "break": 1061,
      "Ġas": 1062,
      "30": 1063,
      "34": 1064,
      "oc": 1065,
      "true": 1066,
      "Ġcur": 1067,
      "find": 1068,
      "]:": 1069,
      "Ġfact": 1070,
      "...)": 1071,
      "Ġhe": 1072,
      "åħ": 1073,
      "]*": 1074,
      "Ċĉĉĉĉĉ": 1075,
      ")+": 1076,
      "ãģĹ": 1077,
      "Ġsys": 1078,
      "ght": 1079,
      "ãģ¯": 1080,
      "Ġnow": 1081,
      "array": 1082,
      "rit": 1083,
      "xt": 1084,
      "ãģ¦": 1085,
      "Ġ%=": 1086,
      "scanf": 1087,
      "dge": 1088,
      "ãĢĢ": 1089,
      "]++;": 1090,
      "Ġnode": 1091,
      "dist": 1092,
      "Array": 1093,
      "right": 1094,
      "sed": 1095,
      "bound": 1096,
      "unction": 1097,
      "ĊĊĊĊ": 1098,
      "Ġroot": 1099,
      "Ġop": 1100,
      "cision": 1101,
      "Ġ\"\\": 1102,
      "Ġ[]": 1103,
      "////////////////": 1104,
      "ĠMain": 1105,
      "',": 1106,
      "constexpr": 1107,
      "Ġ\",": 1108,
      "67": 1109,
      "fact": 1110,
      "Ġex": 1111,
      "Ġflag": 1112,
      "ãģĭ": 1113,
      "Ġor": 1114,
      "Ġ8": 1115,
      "ĠScanner": 1116,
      "Ġ|": 1117,
      "Ġimport": 1118,
      "âķ¬âķ¬âķ¬âķ¬": 1119,
      "Ġcost": 1120,
      "lement": 1121,
      "precision": 1122,
      "åĲ": 1123,
      "Ġ'\\": 1124,
      "wap": 1125,
      "Ġdebug": 1126,
      "ĠY": 1127,
      "ĠInt": 1128,
      "iv": 1129,
      "Ġinf": 1130,
      "Ġvalue": 1131,
      "new": 1132,
      "Ġright": 1133,
      "ld": 1134,
      "60": 1135,
      "Ġinv": 1136,
      "ĊĠĠĠĠĠĠ": 1137,
      "man": 1138,
      "Ġpow": 1139,
      "Ġedge": 1140,
      "Ġtemp": 1141,
      "mat": 1142,
      "Stream": 1143,
      "ä¸": 1144,
      "bj": 1145,
      "Scanner": 1146,
      "ï¼": 1147,
      "]=='": 1148,
      "Ġpr": 1149,
      "Ġ\\": 1150,
      ")*": 1151,
      "Ġleft": 1152,
      "Ġarr": 1153,
      "17": 1154,
      "tree": 1155,
      "Ġ};": 1156,
      "et": 1157,
      "Ġvv": 1158,
      "resize": 1159,
      "Ġfr": 1160,
      "ont": 1161,
      "ater": 1162,
      "50": 1163,
      "elif": 1164,
      "ds": 1165,
      "omb": 1166,
      "Ġpar": 1167,
      "name": 1168,
      "(*": 1169,
      "Ġpre": 1170,
      "Reader": 1171,
      "ority": 1172,
      "Ch": 1173,
      "Ġthis": 1174,
      "Ġ--": 1175,
      "ype": 1176,
      "ãĤī": 1177,
      "24": 1178,
      "ime": 1179,
      "ãģŁ": 1180,
      "Ġ*/": 1181,
      "Ġpos": 1182,
      "ĠSystem": 1183,
      "Ġarray": 1184,
      "Ġld": 1185,
      "endif": 1186,
      "54": 1187,
      "REP": 1188,
      "ç´": 1189,
      "top": 1190,
      "87": 1191,
      "sz": 1192,
      "ash": 1193,
      "date": 1194,
      "Ġ/=": 1195,
      "Ġfind": 1196,
      "Ġpii": 1197,
      "!!": 1198,
      "Ġchmax": 1199,
      "insert": 1200,
      "Ġresult": 1201,
      "ĠModInt": 1202,
      "16": 1203,
      "open": 1204,
      ";++": 1205,
      "åĢ": 1206,
      "ĠĠĠĠĠĠ": 1207,
      "ï¿": 1208,
      "Ġchmin": 1209,
      "manip": 1210,
      "flag": 1211,
      "NO": 1212,
      "iomanip": 1213,
      "cc": 1214,
      "82": 1215,
      "]))": 1216,
      "ĠIn": 1217,
      "gcd": 1218,
      "empty": 1219,
      "(),(": 1220,
      "Ġbu": 1221,
      "Ġadd": 1222,
      "comp": 1223,
      "Ġ{}": 1224,
      "mid": 1225,
      "erase": 1226,
      "ĠQ": 1227,
      "13": 1228,
      "Ġdx": 1229,
      "root": 1230,
      "ãģĻãĤĭ": 1231,
      "Ġdef": 1232,
      "iz": 1233,
      "one": 1234,
      "reater": 1235,
      "':": 1236,
      ">::": 1237,
      "front": 1238,
      "--------------------------------": 1239,
      "EPS": 1240,
      "ery": 1241,
      "84": 1242,
      "Ġdy": 1243,
      "qrt": 1244,
      "79": 1245,
      "\":": 1246,
      "ĠPI": 1247,
      "key": 1248,
      "ios": 1249,
      "ss": 1250,
      "eric": 1251,
      "stdin": 1252,
      "IO": 1253,
      "\",\"": 1254,
      "Ġusing": 1255,
      "cstring": 1256,
      "Ġdata": 1257,
      "putStream": 1258,
      "ank": 1259,
      "reopen": 1260,
      "emplace": 1261,
      "Ġboolean": 1262,
      "math": 1263,
      "ptr": 1264,
      "å¤": 1265,
      "CC": 1266,
      "Point": 1267,
      "data": 1268,
      "ï¿½": 1269,
      "Integer": 1270,
      "****************": 1271,
      "yte": 1272,
      "ä½": 1273,
      "xed": 1274,
      "Ġ100": 1275,
      "alc": 1276,
      "temp": 1277,
      "est": 1278,
      "Ġbit": 1279,
      "Ġprivate": 1280,
      "Long": 1281,
      "Ġrhs": 1282,
      "ĠPoint": 1283,
      "time": 1284,
      "per": 1285,
      "Char": 1286,
      "Ġkey": 1287,
      "inf": 1288,
      "ULL": 1289,
      "56": 1290,
      "()){": 1291,
      "ĊĊĊ": 1292,
      "Ġque": 1293,
      "rag": 1294,
      "1000": 1295,
      "unordered": 1296,
      "ep": 1297,
      "inal": 1298,
      "Ġ!": 1299,
      "self": 1300,
      "EB": 1301,
      ">,": 1302,
      "\\\\": 1303,
      "main": 1304,
      "sub": 1305,
      "ragma": 1306,
      "AA": 1307,
      "ãĢģ": 1308,
      "tuple": 1309,
      "aaaaaaaa": 1310,
      "pragma": 1311,
      "lib": 1312,
      "SE": 1313,
      "80": 1314,
      "Ġtemplate": 1315,
      "'){": 1316,
      "Ġinit": 1317,
      "fl": 1318,
      "(...)": 1319,
      "limit": 1320,
      "buf": 1321,
      "Ġno": 1322,
      "function": 1323,
      "]={": 1324,
      "mo": 1325,
      "ance": 1326,
      "mem": 1327,
      "isit": 1328,
      "Ġok": 1329,
      "cerr": 1330,
      "ĠALL": 1331,
      "make": 1332,
      "UG": 1333,
      "stdlib": 1334,
      "36": 1335,
      "ter": 1336,
      "Ġnull": 1337,
      "Ġthe": 1338,
      "AC": 1339,
      "ãĤĮ": 1340,
      "Ġthrow": 1341,
      "Ġconstexpr": 1342,
      "numeric": 1343,
      "353": 1344,
      "itr": 1345,
      "ãĥ¼ãĥ": 1346,
      "................": 1347,
      "di": 1348,
      "Ġindex": 1349,
      "59": 1350,
      "sc": 1351,
      "Ġull": 1352,
      "Ġ@": 1353,
      "ĠEPS": 1354,
      "Ġ10000": 1355,
      "Mod": 1356,
      "EBUG": 1357,
      "Ġstart": 1358,
      "eight": 1359,
      "Ġcomp": 1360,
      "Ġswap": 1361,
      "æľĢ": 1362,
      "YES": 1363,
      "ĠInteger": 1364,
      "Ġtree": 1365,
      "ump": 1366,
      "pper": 1367,
      "sizeof": 1368,
      "init": 1369,
      "uff": 1370,
      "//#": 1371,
      "},": 1372,
      "prime": 1373,
      "({": 1374,
      "LE": 1375,
      "});": 1376,
      "istream": 1377,
      "29": 1378,
      "ALL": 1379,
      "]!=": 1380,
      "Ġfac": 1381,
      "bitset": 1382,
      "ay": 1383,
      "private": 1384,
      "loat": 1385,
      "](": 1386,
      "ail": 1387,
      ")){": 1388,
      "readline": 1389,
      ",&": 1390,
      "ĠĊĠĠĠ": 1391,
      "vv": 1392,
      "pl": 1393,
      "()-": 1394,
      "ise": 1395,
      "start": 1396,
      "Ġup": 1397,
      "(__": 1398,
      "Ġfl": 1399,
      "cept": 1400,
      "tt": 1401,
      "éł": 1402,
      "cle": 1403,
      "txt": 1404,
      "MMMM": 1405,
      "Ġmemset": 1406,
      "Ġreverse": 1407,
      "$$": 1408,
      ")))": 1409,
      "ial": 1410,
      "Ġlower": 1411,
      "27": 1412,
      "parse": 1413,
      "continue": 1414,
      "riter": 1415,
      "Ġitr": 1416,
      "Line": 1417,
      "iff": 1418,
      "Ġidx": 1419,
      "Ġlcm": 1420,
      "66": 1421,
      "ãĤĬ": 1422,
      "assert": 1423,
      "rbegin": 1424,
      "Ġcheck": 1425,
      "########": 1426,
      "Ġss": 1427,
      "Ġpriority": 1428,
      "NULL": 1429,
      "(_": 1430,
      "ER": 1431,
      "ĊĉĠĠĠ": 1432,
      "');": 1433,
      "ĠArray": 1434,
      "col": 1435,
      "Ġelif": 1436,
      "Ġfrom": 1437,
      "ãĤĴè": 1438,
      "ĉĉĉĉ": 1439,
      "core": 1440,
      "INT": 1441,
      "39": 1442,
      "__)": 1443,
      "ai": 1444,
      "æĸ": 1445,
      "ãģ¾": 1446,
      "Ġ);": 1447,
      "functional": 1448,
      "ard": 1449,
      "ection": 1450,
      "oop": 1451,
      "Ġmul": 1452,
      "igit": 1453,
      "&](": 1454,
      "åı": 1455,
      "LO": 1456,
      "ãģį": 1457,
      "Ġtr": 1458,
      "-=": 1459,
      "lex": 1460,
      "____": 1461,
      "Node": 1462,
      "Ġostream": 1463,
      "ãĤ¹": 1464,
      "````````": 1465,
      "arget": 1466,
      "tal": 1467,
      "Ġ});": 1468,
      "ĠĠĠĠĠĠĠĠĠĠĠĠĠĠĠ": 1469,
      "IT": 1470,
      ".*": 1471,
      "[][": 1472,
      "deque": 1473,
      "ifdef": 1474,
      "NT": 1475,
      "Ġupper": 1476,
      "Ġ20": 1477,
      "Ġmath": 1478,
      "Ġqu": 1479,
      "Ġprime": 1480,
      "ĊĉĉĊĉ": 1481,
      "ST": 1482,
      "UT": 1483,
      "Type": 1484,
      "Byte": 1485,
      "è¦": 1486,
      "rend": 1487,
      "[(": 1488,
      "Ġfinal": 1489,
      "isited": 1490,
      "Ġput": 1491,
      "lity": 1492,
      "Num": 1493,
      "ary": 1494,
      "+(": 1495,
      "================": 1496,
      ".*;": 1497,
      "ï¿½ï¿½": 1498,
      "ï½": 1499,
      "ãĢĤ": 1500,
      "ility": 1501,
      "Ġlast": 1502,
      "except": 1503,
      "parent": 1504,
      "llection": 1505,
      "hpp": 1506,
      "mx": 1507,
      "zy": 1508,
      "null": 1509,
      "utility": 1510,
      "point": 1511,
      "\"\"": 1512,
      "unc": 1513,
      "ĠGCC": 1514,
      "cstdlib": 1515,
      "wer": 1516,
      "Ġparent": 1517,
      "ãģĵ": 1518,
      "Ġdi": 1519,
      "=-": 1520,
      "ãģ£": 1521,
      "Ġgreater": 1522,
      "ĊĊĉĉ": 1523,
      "éĸ": 1524,
      "mul": 1525,
      "Ġ^": 1526,
      "iterator": 1527,
      "Writer": 1528,
      "dfs": 1529,
      "[-": 1530,
      "ite": 1531,
      "åĲĪ": 1532,
      "Ġen": 1533,
      "Ġtype": 1534,
      "Ġarg": 1535,
      "ice": 1536,
      "159": 1537,
      "Ġ12": 1538,
      "Ġ[&](": 1539,
      "Ġcalc": 1540,
      "âĸĪâĸĪâĸĪâĸĪ": 1541,
      "pii": 1542,
      "ĠĊ": 1543,
      "35": 1544,
      "Tree": 1545,
      "Ġpi": 1546,
      "69": 1547,
      "Ġsetprecision": 1548,
      "ĊĊĠĠĠĠĠĠĠĠĠĠĠ": 1549,
      "tim": 1550,
      "ĠĠĠĠĠĠĠĠĠĠĠĠ": 1551,
      "ore": 1552,
      "ĊĉĠ": 1553,
      "Ġfixed": 1554,
      "Ġof": 1555,
      "Ġgraph": 1556,
      "Ġpll": 1557,
      "rime": 1558,
      "solve": 1559,
      "-(": 1560,
      "ĠTrue": 1561,
      "check": 1562,
      "nion": 1563,
      "ock": 1564,
      "ç´ł": 1565,
      "åĢ¤": 1566,
      "Ġnot": 1567,
      "åĬ": 1568,
      "ãĤĴæ": 1569,
      "lower": 1570,
      "llections": 1571,
      "SI": 1572,
      "AT": 1573,
      "ãģªãģĦ": 1574,
      "*=": 1575,
      "å®": 1576,
      "Ġsizeof": 1577,
      "ead": 1578,
      "Ġnoexcept": 1579,
      "ert": 1580,
      "Find": 1581,
      "Ġcol": 1582,
      "Ġassert": 1583,
      "ered": 1584,
      "ãĥĪ": 1585,
      ")==": 1586,
      "åĪĹ": 1587,
      "åĩ": 1588,
      "mint": 1589,
      "1111": 1590,
      "da": 1591,
      ")*(": 1592,
      "Ġac": 1593,
      "535": 1594,
      "order": 1595,
      "ãģĨ": 1596,
      "âĸĳ": 1597,
      "[][]": 1598,
      "Ċĉĉĉĉĉĉ": 1599,
      "Edge": 1600,
      "atch": 1601,
      "qual": 1602,
      "48": 1603,
      "100000000": 1604,
      "Ġ){": 1605,
      "AB": 1606,
      "]>": 1607,
      "Ġexit": 1608,
      "Ġmodint": 1609,
      "Ġseg": 1610,
      "NG": 1611,
      "nx": 1612,
      "~~": 1613,
      "ĠIO": 1614,
      "ä»": 1615,
      "FOR": 1616,
      "Ġcomb": 1617,
      "omp": 1618,
      "arch": 1619,
      "å°": 1620,
      "]));": 1621,
      "Ġvl": 1622,
      "åŃ": 1623,
      "ĊĠĠĠĠĠĠĠĠĠĠĠĠ": 1624,
      "rr": 1625,
      "uffered": 1626,
      "has": 1627,
      "çĤ": 1628,
      "unsigned": 1629,
      "([": 1630,
      "element": 1631,
      "Ġpoint": 1632,
      "Ġfinv": 1633,
      "çĤ¹": 1634,
      "obj": 1635,
      "9982": 1636,
      ">>(": 1637,
      "21": 1638,
      "Ġbase": 1639,
      "23": 1640,
      "99999999": 1641,
      "14159": 1642,
      "998244": 1643,
      "ãĢĢãĢĢ": 1644,
      "+=(": 1645,
      "Ġ->": 1646,
      "]+=": 1647,
      "]%": 1648,
      "lli": 1649,
      "998244353": 1650,
      "ãģ¤": 1651,
      "ffer": 1652,
      "INE": 1653,
      "--){": 1654,
      "andom": 1655,
      "Ġsh": 1656,
      "ĠMath": 1657,
      "ach": 1658,
      "used": 1659,
      "49": 1660,
      "sh": 1661,
      "pth": 1662,
      "<<'": 1663,
      "1415926": 1664,
      "=[": 1665,
      "result": 1666,
      ";;": 1667,
      "Ġ\":": 1668,
      "ique": 1669,
      "Ġvll": 1670,
      "Of": 1671,
      "mi": 1672,
      "Ġ>>=": 1673,
      "Next": 1674,
      "Ġdiv": 1675,
      "ny": 1676,
      "lint": 1677,
      ",(": 1678,
      "ax": 1679,
      "Ġscan": 1680,
      ");++": 1681,
      "maxn": 1682,
      "ãģĤ": 1683,
      ")):": 1684,
      "ç®": 1685,
      "izer": 1686,
      "40": 1687,
      "ufferedReader": 1688,
      "Ġbegin": 1689,
      "Ġ/*": 1690,
      "ive": 1691,
      "sstream": 1692,
      "...);": 1693,
      "nionFind": 1694,
      "Ġnumber": 1695,
      "iner": 1696,
      "å¤§": 1697,
      "ĠĠĠĠĠĠĠĠĠ": 1698,
      "Ġfreopen": 1699,
      ">();": 1700,
      "ros": 1701,
      "buil": 1702,
      "ord": 1703,
      "ĠAr": 1704,
      "opy": 1705,
      "73": 1706,
      "Ġmx": 1707,
      "oooo": 1708,
      ")<<": 1709,
      "arg": 1710,
      "sk": 1711,
      "update": 1712,
      "Ġpq": 1713,
      "Set": 1714,
      "åĮ": 1715,
      "<<\"\\": 1716,
      "ãģķ": 1717,
      "Ġad": 1718,
      "ĊĠĠĠĠĠĠĠĠĠĠĠĠĠĠĠĠĠĠĠĠĠĠĠĠĠĠĠĠĠĠĠĠ": 1719,
      "rix": 1720,
      "ãĤģ": 1721,
      "UM": 1722,
      "move": 1723,
      "ZE": 1724,
      "FF": 1725,
      "Ġstdin": 1726,
      "var": 1727,
      "our": 1728,
      "Ġbuf": 1729,
      "Val": 1730,
      "Ġused": 1731,
      ">>;": 1732,
      "limits": 1733,
      "og": 1734,
      "%%": 1735,
      "¿Ķ": 1736,
      "Ġquery": 1737,
      "25": 1738,
      "sqrt": 1739,
      "]<": 1740,
      "','": 1741,
      "egment": 1742,
      "Ġsqrt": 1743,
      "reverse": 1744,
      "rent": 1745,
      "ãģĭãĤī": 1746,
      "Ġ1000": 1747,
      "ç®Ĺ": 1748,
      "ef": 1749,
      "ero": 1750,
      "LINE": 1751,
      "Ġoptim": 1752,
      "Bu": 1753,
      "âķ¬âķ¬âķ¬âķ¬âķ¬âķ¬âķ¬âķ¬": 1754,
      "isect": 1755,
      "Ġ30": 1756,
      "oken": 1757,
      "Ġfast": 1758,
      "dis": 1759,
      "Map": 1760,
      "Ġsub": 1761,
      "tainer": 1762,
      "Ġrrep": 1763,
      "Ġline": 1764,
      "Ġfill": 1765,
      "éĢ": 1766,
      "hild": 1767,
      "????????????????": 1768,
      "range": 1769,
      "amb": 1770,
      "ãĥ³": 1771,
      "28": 1772,
      "Ġ**": 1773,
      "Ġqueue": 1774,
      "complex": 1775,
      "Ġupdate": 1776,
      "=='": 1777,
      "Ġdb": 1778,
      "no": 1779,
      "ui": 1780,
      "number": 1781,
      "100000": 1782,
      "Ġtuple": 1783,
      "vis": 1784,
      "bb": 1785,
      "AL": 1786,
      "ro": 1787,
      "po": 1788,
      "ambda": 1789,
      "rintWriter": 1790,
      "ĠĊĠĠĠĠĠĠĠ": 1791,
      "()]": 1792,
      "]][": 1793,
      "freopen": 1794,
      "float": 1795,
      "@@@@": 1796,
      "ãģı": 1797,
      "ns": 1798,
      "Ġ60": 1799,
      "Ġcollections": 1800,
      "Ġnp": 1801,
      "Ġdump": 1802,
      "ãģĹãģ¦": 1803,
      "parseInt": 1804,
      "å°ı": 1805,
      "sa": 1806,
      "seg": 1807,
      "loc": 1808,
      "äº": 1809,
      "Token": 1810,
      "Ġ\")": 1811,
      "=\"": 1812,
      "åī": 1813,
      "////////////////////////////////": 1814,
      "ther": 1815,
      "Ġstruct": 1816,
      "ãĤĤ": 1817,
      "xxxx": 1818,
      "åħ¥": 1819,
      "1415926535": 1820,
      "ault": 1821,
      "Ġsp": 1822,
      "/=": 1823,
      "åĪĨ": 1824,
      "Ġhead": 1825,
      "last": 1826,
      "Ġng": 1827,
      "çĽ": 1828,
      "Ġoptimize": 1829,
      "ãģ®æ": 1830,
      "cassert": 1831,
      "20000": 1832,
      "ãģĳ": 1833,
      "Ġsi": 1834,
      "ĊĠĠĠĠĠĠĠĠĊĠĠĠĠĠĠĠ": 1835,
      "abc": 1836,
      "test": 1837,
      "rite": 1838,
      "ĊĠĠĠĠĠĠĠĠĠĠ": 1839,
      "''": 1840,
      "ross": 1841,
      "31": 1842,
      "ose": 1843,
      "ination": 1844,
      "nullptr": 1845,
      "ãĤ¯": 1846,
      "jo": 1847,
      "rc": 1848,
      "ular": 1849,
      "Ġ'#": 1850,
      "Ġfactor": 1851,
      "head": 1852,
      "ools": 1853,
      "substr": 1854,
      "337": 1855,
      "ition": 1856,
      "Ġprev": 1857,
      ")>": 1858,
      "ãĥ«": 1859,
      "è¨": 1860,
      "IOException": 1861,
      "ĠInput": 1862,
      ")[": 1863,
      "Ġ`": 1864,
      "Ġmemo": 1865,
      "åĬĽ": 1866,
      "141592653589": 1867,
      "Ġtarget": 1868,
      "rid": 1869,
      "dx": 1870,
      "Ġsb": 1871,
      "Ġvvi": 1872,
      "aaaaaaaaaaaaaaaa": 1873,
      "Ġtime": 1874,
      "Ġpower": 1875,
      "ORT": 1876,
      "âĶ": 1877,
      "97": 1878,
      "dy": 1879,
      "Ġacos": 1880,
      "Ġ.": 1881,
      "Ġthrows": 1882,
      "ven": 1883,
      "Ġrank": 1884,
      "getchar": 1885,
      "47": 1886,
      "debug": 1887,
      "ins": 1888,
      "DEBUG": 1889,
      "##_": 1890,
      "åĽ": 1891,
      "86": 1892,
      "factor": 1893,
      "]),": 1894,
      "rank": 1895,
      "Ġdiff": 1896,
      "ĠreadByte": 1897,
      "Ġhi": 1898,
      "Ġ(*": 1899,
      "Ġdis": 1900,
      "erge": 1901,
      "com": 1902,
      "gh": 1903,
      "upper": 1904,
      "Ġ998244353": 1905,
      "Double": 1906,
      "999": 1907,
      "Ġtotal": 1908,
      "Ġheap": 1909,
      "ilder": 1910,
      "âĸĳâĸĳ": 1911,
      "!!!!": 1912,
      "ww": 1913,
      "CD": 1914,
      "ng": 1915,
      "ost": 1916,
      "Ġmy": 1917,
      "Ġeps": 1918,
      "14159265358979": 1919,
      "Ġmat": 1920,
      "è¦ģ": 1921,
      ")));": 1922,
      "]];": 1923,
      "sys": 1924,
      "ĠUnionFind": 1925,
      "swap": 1926,
      "åĩº": 1927,
      "code": 1928,
      "ãĤ¤": 1929,
      "InputStream": 1930,
      "ãĥĥ": 1931,
      "clear": 1932,
      "digit": 1933,
      "Builder": 1934,
      "ang": 1935,
      "riend": 1936,
      "odd": 1937,
      "101": 1938,
      "UE": 1939,
      "fill": 1940,
      "fac": 1941,
      "ess": 1942,
      "();}": 1943,
      "ãĥ©": 1944,
      "query": 1945,
      "ãģ®å": 1946,
      "/(": 1947,
      "å®ļ": 1948,
      "%=": 1949,
      "orm": 1950,
      "777": 1951,
      "323": 1952,
      "OM": 1953,
      "builtin": 1954,
      "chr": 1955,
      "Ġdeque": 1956,
      "PO": 1957,
      "jk": 1958,
      "ĠDEBUG": 1959,
      "çĶ": 1960,
      "pi": 1961,
      "pll": 1962,
      "unique": 1963,
      "Ġvs": 1964,
      "100100": 1965,
      "PI": 1966,
      "ĠFalse": 1967,
      "Ġper": 1968,
      "erate": 1969,
      "uu": 1970,
      "quals": 1971,
      "ono": 1972,
      "\\\\\\\\": 1973,
      "Ġuint": 1974,
      "200": 1975,
      "::::": 1976,
      "Ġ'.": 1977,
      "ĠEdge": 1978,
      "clock": 1979,
      "table": 1980,
      "ki": 1981,
      "åŃĹ": 1982,
      "90": 1983,
      "63": 1984,
      "Ġdeb": 1985,
      "ts": 1986,
      "Ġvisited": 1987,
      "ĠArrayList": 1988,
      "51": 1989,
      "-'": 1990,
      "<<\":": 1991,
      "MAXN": 1992,
      "Ġdo": 1993,
      ")),": 1994,
      "__,": 1995,
      "AAAA": 1996,
      "It": 1997,
      "cltype": 1998,
      "cap": 1999,
      "args": 2000,
      "ãģĪ": 2001,
      "ĠGraph": 2002,
      "¿ĶãģĻ": 2003,
      "ĠVV": 2004,
      "ls": 2005,
      "Ġlint": 2006,
      "ĠComp": 2007,
      "ĠLO": 2008,
      "ĠINT": 2009,
      "param": 2010,
      "output": 2011,
      "ĊĠĠĠĠĠĠĠĠĠĠĠĠĠĠĠĠĠĠĠĠĠĠĠĠĠĠĠ": 2012,
      "çķ": 2013,
      "Ġab": 2014,
      "83": 2015,
      "Ġ\");": 2016,
      "çµ": 2017,
      "]<<": 2018,
      "low": 2019,
      "Ġbr": 2020,
      "Ġacc": 2021,
      "case": 2022,
      "random": 2023,
      "mn": 2024,
      "è¡": 2025,
      "[])": 2026,
      "ulate": 2027,
      "Index": 2028,
      "Ġat": 2029,
      "oost": 2030,
      "/**": 2031,
      "eld": 2032,
      "ĊĠĠĠĠĉ": 2033,
      "ĠĠĠĠĠĠĠĠĠĠ": 2034,
      "memo": 2035,
      "To": 2036,
      "setprecision": 2037,
      "azy": 2038,
      "Ġbisect": 2039,
      "ĠĠĠĠĠĠĠĠĠĠĠĠĠ": 2040,
      "Ġanswer": 2041,
      "Ġpl": 2042,
      "graph": 2043,
      "62": 2044,
      "sible": 2045,
      "rou": 2046,
      "boolean": 2047,
      "RE": 2048,
      "ĊĠĠĠĠĠĠĠĠĠĠĠĠĠ": 2049,
      ")?": 2050,
      "ĠnextInt": 2051,
      "ms": 2052,
      "Ġpop": 2053,
      "bl": 2054,
      "[:": 2055,
      "dict": 2056,
      "At": 2057,
      "imits": 2058,
      "greater": 2059,
      "]--;": 2060,
      "Ġputs": 2061,
      "multi": 2062,
      "Ġedges": 2063,
      "vl": 2064,
      "Ġcase": 2065,
      "ĠFast": 2066,
      "Ġcom": 2067,
      "Prime": 2068,
      "mut": 2069,
      "Ġind": 2070,
      "Ġloop": 2071,
      "Ġ26": 2072,
      "ken": 2073,
      "Ġmi": 2074,
      "?Â": 2075,
      "-')": 2076,
      "climits": 2077,
      "ink": 2078,
      "cast": 2079,
      "01": 2080,
      "1000000007": 2081,
      "inary": 2082,
      "Arrays": 2083,
      "Ġrev": 2084,
      "prev": 2085,
      ")//": 2086,
      "Ġsorted": 2087,
      "âĸĵ": 2088,
      "log": 2089,
      "Ġadj": 2090,
      "buffer": 2091,
      "ł´": 2092,
      "ly": 2093,
      "mes": 2094,
      "strip": 2095,
      "()(": 2096,
      "<=(": 2097,
      "zz": 2098,
      "Ġvis": 2099,
      "3333": 2100,
      "ĠArgs": 2101,
      "ĉĉĉ": 2102,
      "rev": 2103,
      "Ġdefault": 2104,
      "br": 2105,
      "ãĤ¿": 2106,
      "vel": 2107,
      "ĊĠĊĠ": 2108,
      "Ġscore": 2109,
      "Count": 2110,
      "<<#": 2111,
      "500": 2112,
      "Ġsig": 2113,
      "LI": 2114,
      "://": 2115,
      "su": 2116,
      "ĠPrintWriter": 2117,
      "éĽ": 2118,
      "Ġdat": 2119,
      "ĠĠĠĠĠĠĠĠĠĠĠĠĠĠĠĠĠĠĠĠĠĠĠĠĠĠĠĠĠĠĠĠĠĠĠĠĠĠĠĠĠĠĠĠĠĠĠĠĠĠĠĠĠĠĠĠĠĠĠĠĠĠĠĠ": 2120,
      "Value": 2121,
      "ãĤ°": 2122,
      "ĠIOException": 2123,
      "]*(": 2124,
      "Sp": 2125,
      "ĠInputStream": 2126,
      "isor": 2127,
      "RO": 2128,
      "557": 2129,
      "Ġæ": 2130,
      "Ġinter": 2131,
      "ĠBufferedReader": 2132,
      "uint": 2133,
      "65": 2134,
      "For": 2135,
      "div": 2136,
      "Ġ';": 2137,
      "Max": 2138,
      "45": 2139,
      "ãĤĴè¿ĶãģĻ": 2140,
      "Ġ11": 2141,
      "bject": 2142,
      "ãĥª": 2143,
      "Ġlhs": 2144,
      "mon": 2145,
      "comb": 2146,
      "]-'": 2147,
      "70": 2148,
      "Ġunordered": 2149,
      "128": 2150,
      "éłĨ": 2151,
      "éĸĵ": 2152,
      "ãĤĪ": 2153,
      "ä¸Ĭ": 2154,
      "Ġnx": 2155,
      "æĸĩ": 2156,
      "81": 2157,
      "Ġcc": 2158,
      "ãĥĨ": 2159,
      "IL": 2160,
      "ĊĊĊĊĊĊĊĊ": 2161,
      "Ġå": 2162,
      "tail": 2163,
      "lock": 2164,
      "close": 2165,
      "lace": 2166,
      "XX": 2167,
      "Ġhash": 2168,
      "bo": 2169,
      "SIZE": 2170,
      "---": 2171,
      "********************************": 2172,
      "Ġmo": 2173,
      ",_": 2174,
      "ctype": 2175,
      "container": 2176,
      "ND": 2177,
      ",,": 2178,
      "8888": 2179,
      "pq": 2180,
      "Ġps": 2181,
      "ĊĊĊĠĠĠ": 2182,
      "Ġgetchar": 2183,
      "Ġ++)": 2184,
      "Ġny": 2185,
      "]].": 2186,
      "ãģĤãĤĭ": 2187,
      "Ġ...": 2188,
      "my": 2189,
      "[],": 2190,
      "Ġlli": 2191,
      "Ġ{};": 2192,
      "Pos": 2193,
      "//--------------------------------": 2194,
      "Ġnl": 2195,
      "Ġminus": 2196,
      "fixed": 2197,
      "color": 2198,
      "Ġdistance": 2199,
      "Ġcolor": 2200,
      "85": 2201,
      "readLine": 2202,
      "ĠLINF": 2203,
      "cpp": 2204,
      "weight": 2205,
      "Ġii": 2206,
      "14159265358979323": 2207,
      "Ġsa": 2208,
      "çĽ®": 2209,
      "own": 2210,
      "Ġ\"{": 2211,
      "Ġext": 2212,
      "BC": 2213,
      "ertools": 2214,
      "Ġtest": 2215,
      "tot": 2216,
      "Ġcatch": 2217,
      "try": 2218,
      ";//": 2219,
      "ho": 2220,
      "hash": 2221,
      "ĠModular": 2222,
      "ative": 2223,
      "Ġsol": 2224,
      "ĠLong": 2225,
      "Ġhas": 2226,
      "ĠZ": 2227,
      "åĪĿ": 2228,
      ");(": 2229,
      "Ġtypedef": 2230,
      "loor": 2231,
      "Ġke": 2232,
      "Ġlow": 2233,
      "Ġal": 2234,
      "mutation": 2235,
      "ride": 2236,
      "ĠStringBuilder": 2237,
      "rhs": 2238,
      "priority": 2239,
      "Fact": 2240,
      "chrono": 2241,
      "sse": 2242,
      "çĶ¨": 2243,
      "ari": 2244,
      "diff": 2245,
      "verride": 2246,
      "Ġtail": 2247,
      "5555": 2248,
      "Ġstdout": 2249,
      "Ġdefine": 2250,
      "umulate": 2251,
      "Ġfunc": 2252,
      "ĻĤ": 2253,
      ")=": 2254,
      "score": 2255,
      "!=(": 2256,
      "537": 2257,
      "Ġerr": 2258,
      "ł´åĲĪ": 2259,
      "vert": 2260,
      "43": 2261,
      "True": 2262,
      "ĠnextLong": 2263,
      "ĠTail": 2264,
      "ĠNode": 2265,
      "ĠSORT": 2266,
      "Ġelement": 2267,
      "åĢĭ": 2268,
      "Ġtable": 2269,
      "Ġby": 2270,
      "yy": 2271,
      "item": 2272,
      "neg": 2273,
      "ä»¥": 2274,
      "ĠIN": 2275,
      "Ġemplace": 2276,
      "âĶĢ": 2277,
      "Ġgo": 2278,
      "fstream": 2279,
      "Ġbe": 2280,
      "Print": 2281,
      "ĠFp": 2282,
      "ĠMint": 2283,
      "Ġfloat": 2284,
      "61": 2285,
      "format": 2286,
      "çķª": 2287,
      "ãģ¿": 2288,
      "ne": 2289,
      "Ġthat": 2290,
      "è¾": 2291,
      "Ġweight": 2292,
      "Ġon": 2293,
      "MMMMMMMM": 2294,
      "Ġ\"}": 2295,
      "onoid": 2296,
      ">());": 2297,
      "Ġdepth": 2298,
      "xy": 2299,
      "Ġli": 2300,
      "è¦ģç´ł": 2301,
      "Override": 2302,
      "775": 2303,
      "IM": 2304,
      "hasNext": 2305,
      "++++": 2306,
      "ãģ£ãģ¦": 2307,
      "Ġlazy": 2308,
      "visited": 2309,
      "å¾": 2310,
      "Īç®Ĺ": 2311,
      "charAt": 2312,
      "æĸĩåŃĹ": 2313,
      "udge": 2314,
      "ĠSZ": 2315,
      "()),": 2316,
      "edges": 2317,
      "join": 2318,
      "Ġ18": 2319,
      "MIN": 2320,
      "Space": 2321,
      "mag": 2322,
      "Ġ(\"": 2323,
      "1010": 2324,
      "total": 2325,
      "CAL": 2326,
      "æľĢå¤§": 2327,
      "_;": 2328,
      "ãģªãĤī": 2329,
      "gnu": 2330,
      "Ġni": 2331,
      "éĻ": 2332,
      "éħ": 2333,
      "Ġmaxn": 2334,
      "///": 2335,
      "GE": 2336,
      "mt": 2337,
      "pbds": 2338,
      "ĊĠĊĠĠĠ": 2339,
      "Ġfriend": 2340,
      "NN": 2341,
      "popcount": 2342,
      "ĠĊĉ": 2343,
      "coder": 2344,
      "Ġcap": 2345,
      "nxt": 2346,
      "}}": 2347,
      "match": 2348,
      "éħį": 2349,
      "ÂĤ": 2350,
      "Sum": 2351,
      "func": 2352,
      "assign": 2353,
      "1415926535897932384": 2354,
      "\":\"": 2355,
      "Ġ\"]": 2356,
      "Ġtop": 2357,
      "lim": 2358,
      "toString": 2359,
      "stra": 2360,
      "dat": 2361,
      "ãģĿ": 2362,
      "Ġfunction": 2363,
      "]]++;": 2364,
      "[\"": 2365,
      "ĊĊĠĠĠĠĠ": 2366,
      "Ġtry": 2367,
      "plus": 2368,
      "copy": 2369,
      "_[": 2370,
      "ãģĹãģŁ": 2371,
      "ĠON": 2372,
      "'&&": 2373,
      "ndef": 2374,
      "DE": 2375,
      "stdout": 2376,
      "07": 2377,
      "PP": 2378,
      "wo": 2379,
      "ĤçĤ¹": 2380,
      "ry": 2381,
      "[]={": 2382,
      "oundType": 2383,
      "Math": 2384,
      "42": 2385,
      "roup": 2386,
      "ĠSegment": 2387,
      "ren": 2388,
      "Ġ\"\"": 2389,
      "100005": 2390,
      "ĠVI": 2391,
      "ifndef": 2392,
      "==\"": 2393,
      "puts": 2394,
      "]>=": 2395,
      "lhs": 2396,
      "$$$$": 2397,
      "vll": 2398,
      "------------": 2399,
      "ä½¿": 2400,
      "=[]": 2401,
      "??????": 2402,
      "cctype": 2403,
      "Ġitertools": 2404,
      "åĮº": 2405,
      "ics": 2406,
      "]<=": 2407,
      "Ġexp": 2408,
      "ni": 2409,
      "Ġ[[": 2410,
      "path": 2411,
      "tag": 2412,
      "110": 2413,
      "å¤ī": 2414,
      "])%": 2415,
      "ãĤ¹ãĥĪ": 2416,
      "Ġobj": 2417,
      "same": 2418,
      "exit": 2419,
      "Ġoutput": 2420,
      "Ġrui": 2421,
      ">=(": 2422,
      "ãģ£ãģŁ": 2423,
      "depth": 2424,
      "Ġlog": 2425,
      "SINT": 2426,
      "éħįåĪĹ": 2427,
      "Ġlb": 2428,
      "Ġdbg": 2429,
      "*-": 2430,
      "flow": 2431,
      "Ġmodpow": 2432,
      "Ġ(((": 2433,
      "................................": 2434,
      "Ġmulti": 2435,
      "stat": 2436,
      "Se": 2437,
      "arator": 2438,
      "adj": 2439,
      "fast": 2440,
      ")];": 2441,
      "Ġsu": 2442,
      "Ġsy": 2443,
      "ph": 2444,
      "]=(": 2445,
      "sb": 2446,
      "BLE": 2447,
      "Ġ50": 2448,
      "è·": 2449,
      "ag": 2450,
      "Ġrall": 2451,
      "cp": 2452,
      "ĠMP": 2453,
      "________": 2454,
      "Ġother": 2455,
      "Ġsign": 2456,
      "Ġio": 2457,
      "search": 2458,
      "]<<\"": 2459,
      "loop": 2460,
      "Out": 2461,
      "ser": 2462,
      "&&&&": 2463,
      "Ġaa": 2464,
      "go": 2465,
      "ctime": 2466,
      "Ġ\"(\"": 2467,
      "ward": 2468,
      "answer": 2469,
      "child": 2470,
      "VAL": 2471,
      "oly": 2472,
      "````````````````": 2473,
      "HH": 2474,
      "Ġne": 2475,
      "éłĤçĤ¹": 2476,
      "heap": 2477,
      "41": 2478,
      "Ġlength": 2479,
      "namespace": 2480,
      "ob": 2481,
      "Ġhtt": 2482,
      "CK": 2483,
      "opt": 2484,
      "Ġcmp": 2485,
      "Ġsame": 2486,
      "recur": 2487,
      "ask": 2488,
      "âĨ": 2489,
      "Ġ...)": 2490,
      "Ġpath": 2491,
      "mall": 2492,
      "]>>": 2493,
      "Ġ\"\";": 2494,
      "æľĢå°ı": 2495,
      "ource": 2496,
      "åħĥ": 2497,
      "00000": 2498,
      "cy": 2499,
      "ãģ©": 2500,
      "±Ĥ": 2501,
      "################": 2502,
      "inter": 2503,
      "Ġcan": 2504,
      "target": 2505,
      "ãĤĮãĤĭ": 2506,
      "ution": 2507,
      ")<(": 2508,
      "_(": 2509,
      "Time": 2510,
      "lazy": 2511,
      "throw": 2512,
      "Tokenizer": 2513,
      "jkstra": 2514,
      "è¡Į": 2515,
      "âĶĢâĶĢ": 2516,
      "âĸĵâĸĵ": 2517,
      "================================": 2518,
      "Ġneg": 2519,
      "Ġmerge": 2520,
      "fe": 2521,
      "Ġstack": 2522,
      "()+": 2523,
      "éģ": 2524,
      "Ġvar": 2525,
      "09": 2526,
      "Ġ24": 2527,
      "),(": 2528,
      "Ġenum": 2529,
      "-=(": 2530,
      "<>();": 2531,
      "Ġlambda": 2532,
      "ä¸ĭ": 2533,
      "(\"\\": 2534,
      "\";}": 2535,
      "Ġ15": 2536,
      "lete": 2537,
      "ãģĦãĤĭ": 2538,
      "atrix": 2539,
      "lr": 2540,
      "Ġ<<\"": 2541,
      "ffff": 2542,
      "))%": 2543,
      "Ġ13": 2544,
      "ĠMIN": 2545,
      "compare": 2546,
      "ĠNum": 2547,
      "ĠBoundType": 2548,
      "ulo": 2549,
      "76": 2550,
      "__':": 2551,
      "Ġcounter": 2552,
      "calc": 2553,
      "memset": 2554,
      "Ġ55": 2555,
      "ãģł": 2556,
      "Ġinclude": 2557,
      "*=(": 2558,
      "Ġuf": 2559,
      "._": 2560,
      "åıĸ": 2561,
      "oooooooo": 2562,
      "ãģĺ": 2563,
      "æľŁ": 2564,
      "ĠĊĠĠĠĠĠĠĠĠĠĠĠ": 2565,
      "real": 2566,
      "ãĥĦ": 2567,
      "ãģ¾ãģ§": 2568,
      "Ġheapq": 2569,
      "Ġce": 2570,
      "ãĤ³": 2571,
      "use": 2572,
      "OF": 2573,
      "100010": 2574,
      "reg": 2575,
      "Ġff": 2576,
      "æİ": 2577,
      "]])": 2578,
      "(\"%.": 2579,
      "decltype": 2580,
      "Ġitem": 2581,
      "æĽ": 2582,
      "lambda": 2583,
      "Segment": 2584,
      "eve": 2585,
      "Ġmn": 2586,
      "modint": 2587,
      "^^": 2588,
      "OUT": 2589,
      "Ġ-*-": 2590,
      "Ġ100000": 2591,
      "ĠNo": 2592,
      "Ġ'__": 2593,
      "VE": 2594,
      "åħ¨": 2595,
      "flush": 2596,
      "'.": 2597,
      "ĠnC": 2598,
      "Code": 2599,
      "ĠCount": 2600,
      "qr": 2601,
      "recursion": 2602,
      "_,": 2603,
      "Ġpp": 2604,
      "Ġ1000000000": 2605,
      "Min": 2606,
      "finv": 2607,
      "333": 2608,
      "åĲĮ": 2609,
      "ĠLOCAL": 2610,
      "Ġnodes": 2611,
      "recursionlimit": 2612,
      "UD": 2613,
      "Ġaccumulate": 2614,
      "ca": 2615,
      "åħ¥åĬĽ": 2616,
      "Ġflow": 2617,
      "Ġistream": 2618,
      "ĊĠĠĠĠĠĠĠĠĠĠĠĠĠĠ": 2619,
      "ĠTs": 2620,
      "ãģ¨ãģį": 2621,
      "åĮĸ": 2622,
      "cs": 2623,
      "Ġbyte": 2624,
      "++]": 2625,
      "éĩ": 2626,
      "Ġdigit": 2627,
      ")+(": 2628,
      "xxxxxxxx": 2629,
      "Ġ\"}\";": 2630,
      "Ġover": 2631,
      "åĮºéĸĵ": 2632,
      "93": 2633,
      "æľ¨": 2634,
      "tains": 2635,
      "cross": 2636,
      "?\"": 2637,
      "Element": 2638,
      "577": 2639,
      "Ġred": 2640,
      "Ġrec": 2641,
      "]]=": 2642,
      "ĠĊĠ": 2643,
      "ãĥķ": 2644,
      "ĠHash": 2645,
      "sx": 2646,
      "exp": 2647,
      "VI": 2648,
      "Ġvp": 2649,
      "åĽŀ": 2650,
      "52": 2651,
      "ï¿½ï¿½ï¿½ï¿½": 2652,
      "±ĤãĤģ": 2653,
      "Ġcurrent": 2654,
      "sin": 2655,
      "RA": 2656,
      "istics": 2657,
      "deg": 2658,
      "åĪĿæľŁ": 2659,
      "ile": 2660,
      "ĠJ": 2661,
      ")++)": 2662,
      "VALUE": 2663,
      "ä¸Ģ": 2664,
      "current": 2665,
      "WW": 2666,
      "_)": 2667,
      "setrecursionlimit": 2668,
      "mask": 2669,
      "Ar": 2670,
      "nn": 2671,
      "\".": 2672,
      "ãģªãĤĭ": 2673,
      ">>>": 2674,
      "imum": 2675,
      "Ġwrite": 2676,
      "equals": 2677,
      "äºĮ": 2678,
      "ĠMAXN": 2679,
      "Ġ|=": 2680,
      "Graph": 2681,
      "Size": 2682,
      "199": 2683,
      "];}": 2684,
      "hor": 2685,
      "Ġptr": 2686,
      "Ġ'-')": 2687,
      "Ġcombination": 2688,
      "68": 2689,
      "ĊĊĠĠ": 2690,
      "Sort": 2691,
      "Ġbl": 2692,
      "æĸ¹": 2693,
      "Ġuse": 2694,
      "Ġenumerate": 2695,
      "Ġargc": 2696,
      "SSI": 2697,
      "2000": 2698,
      "Ġfora": 2699,
      "è¨Īç®Ĺ": 2700,
      "Ġrow": 2701,
      "Ġ{-": 2702,
      "Ġxs": 2703,
      "aaaaaaaaaaaaaaaaaaaaaaaaaaaaaaaa": 2704,
      "nextLong": 2705,
      "ircle": 2706,
      "Input": 2707,
      "write": 2708,
      "ĠONLINE": 2709,
      "SSIBLE": 2710,
      ")<": 2711,
      "Ġflg": 2712,
      "flg": 2713,
      "Ġ()": 2714,
      "boost": 2715,
      "ĠRREP": 2716,
      "Ġiter": 2717,
      "ĠSI": 2718,
      "ĠHead": 2719,
      "ory": 2720,
      ")(__": 2721,
      "éĸ¢": 2722,
      "212": 2723,
      "(;": 2724,
      "imal": 2725,
      "uf": 2726,
      "Ġscanner": 2727,
      "ĊĉĠĠĠĠĠĠĠ": 2728,
      "old": 2729,
      "ArrayList": 2730,
      "ĠPB": 2731,
      "not": 2732,
      "300": 2733,
      "stringstream": 2734,
      "atter": 2735,
      "~~~~": 2736,
      "Ġ(;": 2737,
      "Ġcopy": 2738,
      ";--": 2739,
      "ãģ®æķ°": 2740,
      "11111111": 2741,
      "ceil": 2742,
      "åł´åĲĪ": 2743,
      "Format": 2744,
      "zero": 2745,
      "Ġls": 2746,
      "ID": 2747,
      "ild": 2748,
      "fa": 2749,
      "PE": 2750,
      "Ġunite": 2751,
      "âł": 2752,
      "ant": 2753,
      "Pair": 2754,
      "statistics": 2755,
      "æ³": 2756,
      "233": 2757,
      "xs": 2758,
      "CLO": 2759,
      "np": 2760,
      "çĲ": 2761,
      "âĢ": 2762,
      "Len": 2763,
      "<<\",": 2764,
      "ĊĉĉĉĊĉĉ": 2765,
      "]='": 2766,
      "--,": 2767,
      "ĠIt": 2768,
      "='": 2769,
      "Ġcompare": 2770,
      "Ġrb": 2771,
      "ĠInputStreamReader": 2772,
      "ãģ°": 2773,
      "SpaceChar": 2774,
      "cmp": 2775,
      "Ġhttps": 2776,
      "SEC": 2777,
      "UN": 2778,
      "åĩºåĬĽ": 2779,
      "iter": 2780,
      "Vector": 2781,
      "[](": 2782,
      "Ġbfs": 2783,
      "pa": 2784,
      "Number": 2785,
      "ake": 2786,
      "},{": 2787,
      "ĠFor": 2788,
      "OU": 2789,
      "Ġsiz": 2790,
      "ãĥ»": 2791,
      "Ġub": 2792,
      "Ġone": 2793,
      "sorted": 2794,
      "Ġeb": 2795,
      "åī²": 2796,
      "lst": 2797,
      ">>=": 2798,
      "ModInt": 2799,
      "234": 2800,
      "ĠCon": 2801,
      "ãĥĩ": 2802,
      "vs": 2803,
      "ĠDouble": 2804,
      "ł¹": 2805,
      "Range": 2806,
      "ĠArrays": 2807,
      "çĲĨ": 2808,
      "bin": 2809,
      "Ġinsert": 2810,
      "Ġless": 2811,
      "ĠLI": 2812,
      "be": 2813,
      "Ġnxt": 2814,
      "oll": 2815,
      "ka": 2816,
      "ba": 2817,
      "ĠGCD": 2818,
      "counter": 2819,
      "æĻĤ": 2820,
      "src": 2821,
      "kenizer": 2822,
      "ä¹": 2823,
      "ork": 2824,
      "Ġtot": 2825,
      "ä½ľ": 2826,
      "DP": 2827,
      "]&&": 2828,
      "Su": 2829,
      "(\"-": 2830,
      "power": 2831,
      "distance": 2832,
      "rx": 2833,
      "final": 2834,
      "[++": 2835,
      "typeof": 2836,
      "Ġpa": 2837,
      "Ġ(-": 2838,
      "Ġvc": 2839,
      "ĠDP": 2840,
      "wa": 2841,
      "Ġnums": 2842,
      "ON": 2843,
      "['": 2844,
      "\"){": 2845,
      "ãĥ¼ãĥĪ": 2846,
      "nodes": 2847,
      "ertex": 2848,
      "BufferedReader": 2849,
      "Ġ16": 2850,
      "ĠYes": 2851,
      "Ġbuffer": 2852,
      "Ġmt": 2853,
      "è§": 2854,
      "ĠRe": 2855,
      "rest": 2856,
      "Ġdivisor": 2857,
      "Ġdefaultdict": 2858,
      "Printable": 2859,
      "by": 2860,
      "remove": 2861,
      "533": 2862,
      "ç´łæķ°": 2863,
      "ED": 2864,
      "Ġ[](": 2865,
      "idth": 2866,
      "Ġxx": 2867,
      "Ġvb": 2868,
      "uthor": 2869,
      "ãĤı": 2870,
      "UDGE": 2871,
      "imag": 2872,
      "ĠNumber": 2873,
      "58": 2874,
      "na": 2875,
      "ĊĠĠĠĠĠĠĠĠĠĠĠĠĠĠĠĠĠĠĠĠĠĠĠĠĠĠĠĠĠĠĠ": 2876,
      "Ġfactorial": 2877,
      "Ġ27": 2878,
      "permutation": 2879,
      "Ġbo": 2880,
      "Ġrepr": 2881,
      "åħ¬": 2882,
      "db": 2883,
      "assoc": 2884,
      "Ġ(&": 2885,
      "rstrip": 2886,
      "147": 2887,
      "ĠList": 2888,
      "yes": 2889,
      "Ġcode": 2890,
      "100001": 2891,
      "ãĥŃ": 2892,
      "state": 2893,
      "232": 2894,
      "Dist": 2895,
      "]):": 2896,
      "Ġdec": 2897,
      "ĠYES": 2898,
      "replace": 2899,
      "Ġzero": 2900,
      "Object": 2901,
      "Ġcross": 2902,
      "Hash": 2903,
      "573": 2904,
      "Tr": 2905,
      "tional": 2906,
      "Ġ\"<<#": 2907,
      "\\\\\\\\\\\\\\\\": 2908,
      "Ġmask": 2909,
      "Ġ^=": 2910,
      "0000000000": 2911,
      "JUDGE": 2912,
      "Ġ'#')": 2913,
      "oding": 2914,
      "Ġodd": 2915,
      "ĠRE": 2916,
      "----------": 2917,
      "eat": 2918,
      "ãĥŀ": 2919,
      "ãģĽ": 2920,
      "ĠCOM": 2921,
      "Ġbuild": 2922,
      "Iterator": 2923,
      "POSSIBLE": 2924,
      "ust": 2925,
      "46": 2926,
      "ĠĠĠĠĠĠĠĠĠĠĠĠĠĠĠĠĠĠĠĠĠĠĠĠĠĠĠĠĠĠĠĠĠĠĠĠĠĠĠĠĠĠĠĠĠĠĠĠ": 2927,
      "Ġ]": 2928,
      "+-": 2929,
      "Ġorder": 2930,
      "do": 2931,
      "==(": 2932,
      ";(": 2933,
      "Ġwh": 2934,
      "ute": 2935,
      "++,": 2936,
      "ãĤĴæ±ĤãĤģ": 2937,
      "']": 2938,
      "ĠCounter": 2939,
      "rd": 2940,
      "Ġstep": 2941,
      "OW": 2942,
      "Ġhigh": 2943,
      "ĠLine": 2944,
      "ain": 2945,
      "dst": 2946,
      "å¿": 2947,
      "Ġputchar": 2948,
      "ix": 2949,
      "ĠMax": 2950,
      "WA": 2951,
      "Ġprimes": 2952,
      "ĠhasNext": 2953,
      "Ġ~": 2954,
      "ffset": 2955,
      "Ġvii": 2956,
      "dir": 2957,
      "PrintableChar": 2958,
      "ABC": 2959,
      "ib": 2960,
      "Ġts": 2961,
      "Ġ19": 2962,
      "+\"": 2963,
      "ĠFI": 2964,
      "Ġcy": 2965,
      "df": 2966,
      "Ġare": 2967,
      "Stack": 2968,
      "DD": 2969,
      "attern": 2970,
      "ĠOut": 2971,
      "03": 2972,
      "VV": 2973,
      "ä½į": 2974,
      "Ġchild": 2975,
      "æĮ": 2976,
      "efore": 2977,
      "face": 2978,
      "Ġel": 2979,
      "è¾º": 2980,
      "load": 2981,
      "rand": 2982,
      "day": 2983,
      "Ġ\"{\";": 2984,
      "lem": 2985,
      "ĠRFOR": 2986,
      "ĠFastScanner": 2987,
      "Ġpy": 2988,
      "ĠPII": 2989,
      "å¼": 2990,
      "1000000": 2991,
      "FI": 2992,
      "ãĥ¼ãĥī": 2993,
      "ãģ®ãģ§": 2994,
      "ĠĠĠĠĠĠĠĠĠĠĠĠĠĠ": 2995,
      "ĠĊĠĠ": 2996,
      "ĠVector": 2997,
      "Pr": 2998,
      "âĸĴ": 2999,
      "ill": 3000,
      "curr": 3001,
      "Ġrest": 3002,
      "dec": 3003,
      "its": 3004,
      "Ġnc": 3005,
      "Ġ\"\"\"": 3006,
      "ĠBIT": 3007,
      "utf": 3008,
      "AAAAAAAA": 3009,
      "raction": 3010,
      "ç´Ħ": 3011,
      "å¯": 3012,
      "RT": 3013,
      "Ġ31": 3014,
      "ends": 3015,
      "åīį": 3016,
      "oduct": 3017,
      "ONG": 3018,
      "&(": 3019,
      "sect": 3020,
      "ĊĠĠĠĠĠĠĠĠĠĠĠĠĠĠĠĠĠ": 3021,
      "Ġç": 3022,
      "Ġ2019": 3023,
      "md": 3024,
      "Ġ\")\";": 3025,
      "minus": 3026,
      "rect": 3027,
      "imp": 3028,
      "Comp": 3029,
      "/=(": 3030,
      "Ġrepi": 3031,
      "()));": 3032,
      "){}": 3033,
      "ãģĬ": 3034,
      "Ġ37": 3035,
      "BB": 3036,
      "++];": 3037,
      "<<'\\": 3038,
      "Ġfun": 3039,
      "nums": 3040,
      "Ġlevel": 3041,
      "ĊĠĠĠĠĠĠĠĠĠĠĠĠĠĠĠĠĠĠĠĠĠĠĠĠĠĠĠĠĠĠĠĠĠĠĠĠĠĠĠĠĠĠĠĠ": 3042,
      "¡ģ": 3043,
      "other": 3044,
      "forward": 3045,
      "OK": 3046,
      "{}": 3047,
      "ç´¢": 3048,
      "Ġgrid": 3049,
      "floor": 3050,
      "polic": 3051,
      "bc": 3052,
      "Key": 3053,
      "ĠMonoid": 3054,
      "SS": 3055,
      "647": 3056,
      "§ĭ": 3057,
      "ĊĠĊ": 3058,
      "ress": 3059,
      "__(": 3060,
      "Ġum": 3061,
      "åĲĮãģĺ": 3062,
      "'||": 3063,
      "umpy": 3064,
      "py": 3065,
      "âĸĪâĸĪâĸĪâĸĪâĸĪâĸĪâĸĪâĸĪ": 3066,
      "91": 3067,
      "ãģ¾ãģĻ": 3068,
      ")!=": 3069,
      "ie": 3070,
      "Ġketa": 3071,
      "factorial": 3072,
      "Ġsw": 3073,
      "reate": 3074,
      "kai": 3075,
      "Ġrand": 3076,
      "Ġcurr": 3077,
      "ï¼Ī": 3078,
      "567": 3079,
      "Ġes": 3080,
      "ĠNIL": 3081,
      "Ġsm": 3082,
      "Ġve": 3083,
      "Ġ77": 3084,
      "ŀĭ": 3085,
      "uper": 3086,
      "Ġlo": 3087,
      "ĊĊĉĉĉ": 3088,
      "ĠStringTokenizer": 3089,
      "94": 3090,
      "¬¡": 3091,
      "cstd": 3092,
      "ueue": 3093,
      "Ġsx": 3094,
      "ĉĉĉĉĉĉĉĉ": 3095,
      "èª": 3096,
      "IG": 3097,
      "ru": 3098,
      "Ġrem": 3099,
      "Ġequals": 3100,
      "Ġmd": 3101,
      "âķ¬âķ¬âķ¬âķ¬âķ¬âķ¬âķ¬âķ¬âķ¬âķ¬âķ¬âķ¬âķ¬âķ¬âķ¬âķ¬": 3102,
      "ick": 3103,
      "38": 3104,
      "Ġbs": 3105,
      "æķ´": 3106,
      "tp": 3107,
      "ä¹Ĺ": 3108,
      "2019": 3109,
      "avx": 3110,
      "ori": 3111,
      "over": 3112,
      "æĪ": 3113,
      "96": 3114,
      "Ġnumpy": 3115,
      "tx": 3116,
      "mm": 3117,
      "kk": 3118,
      "Ġdel": 3119,
      "high": 3120,
      "ĠSt": 3121,
      "ãĢĢãĢĢãĢĢãĢĢ": 3122,
      "rtln": 3123,
      "ãģ®ç": 3124,
      "First": 3125,
      "ome": 3126,
      "Ġsearch": 3127,
      "Ġ32": 3128,
      "LONG": 3129,
      "Such": 3130,
      "De": 3131,
      "Ġ++;": 3132,
      "arge": 3133,
      "ElementException": 3134,
      "SuchElementException": 3135,
      "553": 3136,
      "alf": 3137,
      "å¤§ãģį": 3138,
      "Ġreg": 3139,
      "Ġcand": 3140,
      "DEF": 3141,
      "isdigit": 3142,
      "Ġlm": 3143,
      "acos": 3144,
      "854": 3145,
      "åĪ¤": 3146,
      "Ġimp": 3147,
      "MP": 3148,
      "æĸ°": 3149,
      "ei": 3150,
      "));}": 3151,
      "even": 3152,
      "ected": 3153,
      "oi": 3154,
      "```": 3155,
      "nal": 3156,
      "acc": 3157,
      "ies": 3158,
      "Ġpf": 3159,
      "Ġextends": 3160,
      "policy": 3161,
      "ual": 3162,
      "Head": 3163,
      "+-+-": 3164,
      "Ġceil": 3165,
      "Ġpw": 3166,
      "FS": 3167,
      "807": 3168,
      "Ġsrc": 3169,
      "Ġty": 3170,
      "Ġnorm": 3171,
      "jp": 3172,
      "less": 3173,
      "!!!!!!!!": 3174,
      "ĠSIZE": 3175,
      "Ġra": 3176,
      "ä¿": 3177,
      "08": 3178,
      "Ġbig": 3179,
      "Ġmove": 3180,
      "åľ": 3181,
      "âĸĢ": 3182,
      "bi": 3183,
      "éĽĨ": 3184,
      "ĴĮ": 3185,
      "Ġcs": 3186,
      "åĨ": 3187,
      "height": 3188,
      "ĠNone": 3189,
      "Ġ33": 3190,
      "Ġry": 3191,
      "ĉĊ": 3192,
      "Ġshow": 3193,
      "Ġbin": 3194,
      "FormatException": 3195,
      "Ġfin": 3196,
      "eps": 3197,
      "Ġns": 3198,
      "ook": 3199,
      "NA": 3200,
      "ãĤ½": 3201,
      "]/": 3202,
      "ç´Ħæķ°": 3203,
      "Co": 3204,
      "å·": 3205,
      "éĸ¢æķ°": 3206,
      "nk": 3207,
      "Ġbinary": 3208,
      "Ġeven": 3209,
      "ĊĠĠĠĠĊĠĠĠĠ": 3210,
      "Ġcoding": 3211,
      "ossible": 3212,
      "multiprecision": 3213,
      "ĊĊĠĠĠĠĠĠĠĠĠĠĠĠĠĠĠ": 3214,
      "siz": 3215,
      "BG": 3216,
      "Ġ('": 3217,
      "Ġ')": 3218,
      "19937": 3219,
      "Ġstream": 3220,
      "Ġwa": 3221,
      "éĽ¢": 3222,
      ")=(": 3223,
      "ĠĠĠĠĠĠĠĠĠĠĠĠĠĠĠĠĠĠĠ": 3224,
      "ĊĉĉĠĠĠ": 3225,
      "NI": 3226,
      "Ġxy": 3227,
      "Ġ57": 3228,
      "ĠDUM": 3229,
      "1001": 3230,
      "Ġdou": 3231,
      "info": 3232,
      "Ġri": 3233,
      "Ġcomplex": 3234,
      "Ġ::": 3235,
      "ãĤĴæ±ĤãĤģãĤĭ": 3236,
      "Ġbb": 3237,
      "Ġtrace": 3238,
      "ĠArg": 3239,
      "ï¼ī": 3240,
      "Ġreps": 3241,
      "atcoder": 3242,
      "pt": 3243,
      "Ġ\"+": 3244,
      "Ġ',": 3245,
      ")/(": 3246,
      "II": 3247,
      "argv": 3248,
      "ãģĵãģ¨": 3249,
      "&&(": 3250,
      "uce": 3251,
      "norm": 3252,
      "lcm": 3253,
      "vvt": 3254,
      "])+": 3255,
      "FFFF": 3256,
      "111": 3257,
      "Ġms": 3258,
      "ĠInputReader": 3259,
      "ji": 3260,
      "]=='#": 3261,
      "Ġ\"-": 3262,
      "Ġ17": 3263,
      "NS": 3264,
      "ĠNumberFormatException": 3265,
      ")&": 3266,
      "Ġeach": 3267,
      "%%%%": 3268,
      "(((": 3269,
      "åĩ¦": 3270,
      "Or": 3271,
      "ave": 3272,
      "Case": 3273,
      "==-": 3274,
      "â£": 3275,
      "åħĪ": 3276,
      "Ġlim": 3277,
      "(\"\");": 3278,
      "å¯¾": 3279,
      "ĊĠĠĠĠĠĠĠĠĊĠĠĠ": 3280,
      "èĩ": 3281,
      "Ġmll": 3282,
      "False": 3283,
      "Ġvvl": 3284,
      "ï¼ģ": 3285,
      "åĩ¦çĲĨ": 3286,
      "Ġiterator": 3287,
      "Ċĉĉĉĉĉĉĉ": 3288,
      "??Â": 3289,
      "Ġchange": 3290,
      "rem": 3291,
      "åº": 3292,
      "ļĦ": 3293,
      "ĠPR": 3294,
      "¢ç´¢": 3295,
      "Ġmatrix": 3296,
      "{{": 3297,
      "Ġvvll": 3298,
      "Ġboost": 3299,
      "Ġ\"[": 3300,
      "++--": 3301,
      "åĭ": 3302,
      "Ġheight": 3303,
      "ple": 3304,
      "Ġpro": 3305,
      "ãĤĵ": 3306,
      "dou": 3307,
      "400": 3308,
      "è·Ŀ": 3309,
      "ister": 3310,
      "aku": 3311,
      "åĬł": 3312,
      "Ġ\":\"": 3313,
      "Con": 3314,
      "::-": 3315,
      "åı³": 3316,
      "Ġ\".": 3317,
      "Ġrt": 3318,
      "Ġ\"#": 3319,
      "ĠRep": 3320,
      "Ġsin": 3321,
      "dot": 3322,
      "Ġstate": 3323,
      "MAT": 3324,
      "è§£": 3325,
      "__\":": 3326,
      "Ġmini": 3327,
      "ME": 3328,
      "Ġ53": 3329,
      "Ġ36": 3330,
      "çļĦ": 3331,
      "Trace": 3332,
      "SZ": 3333,
      "LIBC": 3334,
      "ï¼Į": 3335,
      "Cost": 3336,
      "åĪ¤å®ļ": 3337,
      "EE": 3338,
      "roll": 3339,
      "qq": 3340,
      "vc": 3341,
      "98": 3342,
      "All": 3343,
      "ĠPQ": 3344,
      "è¦ª": 3345,
      "Ġdir": 3346,
      "ACH": 3347,
      "1024": 3348,
      "age": 3349,
      "StackTrace": 3350,
      "Ġlst": 3351,
      "ood": 3352,
      "Ġnumeric": 3353,
      "ãģ¹": 3354,
      "Ġ64": 3355,
      "Ofast": 3356,
      "è·ĿéĽ¢": 3357,
      "Ġdecltype": 3358,
      "éļ": 3359,
      "enter": 3360,
      "ãĥ¼ãĥĹ": 3361,
      "fo": 3362,
      "Ġ\";}": 3363,
      "ify": 3364,
      "Ġnullptr": 3365,
      "Ġãģ®": 3366,
      "Ġ}}": 3367,
      "Ġmaxi": 3368,
      "ORD": 3369,
      "++--++--": 3370,
      "__;": 3371,
      "<='": 3372,
      "Ġutf": 3373,
      "æķ´æķ°": 3374,
      "Bound": 3375,
      "483": 3376,
      "SP": 3377,
      "nl": 3378,
      "Le": 3379,
      "||||": 3380,
      "vp": 3381,
      "ices": 3382,
      "Ġfo": 3383,
      "och": 3384,
      "Ġclock": 3385,
      "Ġrs": 3386,
      "211": 3387,
      "´æĸ°": 3388,
      "ãģĪãĤĭ": 3389,
      "773": 3390,
      "Data": 3391,
      "4444": 3392,
      "Ġtt": 3393,
      "éĽĨåĲĪ": 3394,
      "ĊĠĠĠĠĉĉ": 3395,
      ",\"": 3396,
      "CT": 3397,
      "egTree": 3398,
      "ĠIOS": 3399,
      "Ġna": 3400,
      "lt": 3401,
      "lis": 3402,
      "Imp": 3403,
      "raw": 3404,
      "ĠnextDouble": 3405,
      ";};": 3406,
      "unt": 3407,
      "ift": 3408,
      "éĥ": 3409,
      "]],": 3410,
      "çķªçĽ®": 3411,
      "Ġrr": 3412,
      "each": 3413,
      "vertex": 3414,
      "Ġsq": 3415,
      "105": 3416,
      "scan": 3417,
      "merge": 3418,
      "+'": 3419,
      "()==": 3420,
      "200005": 3421,
      "GLIBC": 3422,
      "GLIBCXX": 3423,
      "ãģĳãĤĭ": 3424,
      "printStackTrace": 3425,
      "Ġ\"__": 3426,
      "judge": 3427,
      "Ġct": 3428,
      "Ġreader": 3429,
      "Ġrng": 3430,
      "Ġ1000000": 3431,
      "Ġ100100100": 3432,
      "Ġdeg": 3433,
      "æ¬¡": 3434,
      "Ġdijkstra": 3435,
      "cx": 3436,
      "Queue": 3437,
      "ĠAB": 3438,
      "ĊĉĠĠĠĠĠ": 3439,
      "zu": 3440,
      "???": 3441,
      "Ġmodinv": 3442,
      "Ġyy": 3443,
      "ĠLC": 3444,
      "âĸĦ": 3445,
      "åĭķ": 3446,
      "rs": 3447,
      "ĠAll": 3448,
      "TT": 3449,
      "...(": 3450,
      "ĠBig": 3451,
      "Ġbest": 3452,
      "Op": 3453,
      "ĠnCr": 3454,
      "14159265358979323846": 3455,
      "step": 3456,
      "PUT": 3457,
      "Ans": 3458,
      "OO": 3459,
      "Ġ\",\"": 3460,
      "Ġ'<<": 3461,
      "ĠisPrime": 3462,
      "92": 3463,
      "ãĥ¼ãĤ¿": 3464,
      "ãĥ«ãĥ¼ãĥĹ": 3465,
      "Fl": 3466,
      "78": 3467,
      "ence": 3468,
      "Ġmon": 3469,
      "rec": 3470,
      "åĪĿæľŁåĮĸ": 3471,
      "isSpaceChar": 3472,
      "ç©": 3473,
      "Cl": 3474,
      "stance": 3475,
      "Str": 3476,
      "ee": 3477,
      "contains": 3478,
      "Ġimplement": 3479,
      "KK": 3480,
      "sw": 3481,
      "PER": 3482,
      "Ġ14": 3483,
      "Ġfield": 3484,
      "field": 3485,
      "EST": 3486,
      "Ġrun": 3487,
      "éĢĨ": 3488,
      "Ġhere": 3489,
      "ĠException": 3490,
      "parseDouble": 3491,
      "wise": 3492,
      "USE": 3493,
      "832": 3494,
      "06": 3495,
      "\"\"\"": 3496,
      ">{": 3497,
      "&&...": 3498,
      "âĸĳâĸĳâĸĳâĸĳ": 3499,
      "Ġ*(": 3500,
      "ĠLLONG": 3501,
      "Ġnd": 3502,
      "arable": 3503,
      "Ġmatch": 3504,
      "@@@@@@@@": 3505,
      "sm": 3506,
      "Ġrv": 3507,
      "PrintWriter": 3508,
      "vb": 3509,
      "parents": 3510,
      "Ġcou": 3511,
      "lb": 3512,
      "æ¡ģ": 3513,
      "Ġdd": 3514,
      "rb": 3515,
      "pw": 3516,
      "å¾Ĺ": 3517,
      "AP": 3518,
      "ĊĉĉĊ": 3519,
      "åĢį": 3520,
      "ET": 3521,
      "ãĤĤãģ®": 3522,
      "æĦ": 3523,
      "Ġinternal": 3524,
      "Ġsuper": 3525,
      "deb": 3526,
      "Ġrm": 3527,
      "isPrintableChar": 3528,
      "Ġvalues": 3529,
      "ismatch": 3530,
      "ug": 3531,
      "Ġenable": 3532,
      "ĠĊĉĉ": 3533,
      "Ġdice": 3534,
      "Ġdst": 3535,
      "Ġ},": 3536,
      "000000": 3537,
      "PB": 3538,
      "nextToken": 3539,
      "Ġ!(": 3540,
      "ure": 3541,
      "ãĥ¡": 3542,
      "ACRO": 3543,
      "Ġforn": 3544,
      "tra": 3545,
      "éĥ¨": 3546,
      "Ġtwo": 3547,
      "oops": 3548,
      "&...": 3549,
      "ĠMin": 3550,
      "Ġvd": 3551,
      "180": 3552,
      "ĠNoSuchElementException": 3553,
      "æ³ķ": 3554,
      "Ġifact": 3555,
      "âĨĵ": 3556,
      "fora": 3557,
      "values": 3558,
      "Mismatch": 3559,
      "ãĥİ": 3560,
      "MismatchException": 3561,
      "2036": 3562,
      "appop": 3563,
      "lay": 3564,
      "nv": 3565,
      "file": 3566,
      "Ġ');": 3567,
      "Ġsolver": 3568,
      "Ġai": 3569,
      "ãĥĹ": 3570,
      "sol": 3571,
      "ractions": 3572,
      "elper": 3573,
      "Ġru": 3574,
      "AST": 3575,
      "Ġsgn": 3576,
      "ded": 3577,
      ")<<\"": 3578,
      "ĠRALL": 3579,
      "ä¾": 3580,
      "200000": 3581,
      "%(": 3582,
      "fix": 3583,
      "Ġpart": 3584,
      "otate": 3585,
      "¼Ķ": 3586,
      "<?": 3587,
      "rence": 3588,
      "Ġord": 3589,
      "dep": 3590,
      "æĪĲ": 3591,
      "Ġrx": 3592,
      "]==\"": 3593,
      ".....": 3594,
      "¼Ķç®Ĺ": 3595,
      "abcdef": 3596,
      "gy": 3597,
      "Ġdot": 3598,
      "Ġ42": 3599,
      "source": 3600,
      "\"))": 3601,
      "Ġ48": 3602,
      "373": 3603,
      "Ġfa": 3604,
      "ãĤ°ãĥ©": 3605,
      "Ġ\"]\";": 3606,
      "PII": 3607,
      "ãģ¡": 3608,
      "Factor": 3609,
      "00005": 3610,
      "itch": 3611,
      "ecimal": 3612,
      "ĠComparable": 3613,
      "ãģ®æł¹": 3614,
      "3372036": 3615,
      "SORT": 3616,
      "_.": 3617,
      "Ġsplit": 3618,
      "Ġccw": 3619,
      "contest": 3620,
      "numbers": 3621,
      "èĩª": 3622,
      "ãĤ¢": 3623,
      "Ġ500": 3624,
      "3372036854": 3625,
      "();++": 3626,
      "Ġerase": 3627,
      "pha": 3628,
      "Ġflush": 3629,
      "½®": 3630,
      "Ġed": 3631,
      "ĠSegmentTree": 3632,
      "0000000000000000": 3633,
      "memory": 3634,
      "Ġ'.')": 3635,
      "He": 3636,
      "-----": 3637,
      "grid": 3638,
      "...);}": 3639,
      "âĸĴâĸĴ": 3640,
      "stead": 3641,
      "ulus": 3642,
      "ãģŁãĤģ": 3643,
      "Big": 3644,
      "æı": 3645,
      "NUM": 3646,
      "ĠNO": 3647,
      "Search": 3648,
      "3372036854775": 3649,
      "ĠREPR": 3650,
      "OP": 3651,
      "Ġsk": 3652,
      "74": 3653,
      "æİ¢ç´¢": 3654,
      "###": 3655,
      "æĸĩåŃĹåĪĹ": 3656,
      "Ġfile": 3657,
      "Ġoffset": 3658,
      "]=-": 3659,
      "å¤§ãģįãģĦ": 3660,
      "ãĤĮãģ°": 3661,
      "bel": 3662,
      "since": 3663,
      "Ġimplements": 3664,
      "thon": 3665,
      "ization": 3666,
      "AS": 3667,
      "Ġinverse": 3668,
      "jj": 3669,
      "epoch": 3670,
      "valueOf": 3671,
      "Ġjudge": 3672,
      "Ġ88": 3673,
      "LR": 3674,
      "Ġinc": 3675,
      "hoge": 3676,
      "72": 3677,
      "Ġcum": 3678,
      "Ġtim": 3679,
      "ĠOUT": 3680,
      "04": 3681,
      "Ġĉ": 3682,
      "ãģĦãģ¦": 3683,
      "SED": 3684,
      "ache": 3685,
      "ãģ§ãģį": 3686,
      "af": 3687,
      "MB": 3688,
      "form": 3689,
      "Ġyes": 3690,
      "wi": 3691,
      "dent": 3692,
      "WORD": 3693,
      "derr": 3694,
      "ç½®": 3695,
      "bisect": 3696,
      "<'": 3697,
      "MATH": 3698,
      "inc": 3699,
      "ĊĠĠĠĠĠĠĠĠĠĠĠĠĠĠĠĠĠĠ": 3700,
      "]!='": 3701,
      "parseLong": 3702,
      "dice": 3703,
      "\"]": 3704,
      "friend": 3705,
      ":]": 3706,
      "Ġkai": 3707,
      "éķ": 3708,
      "<<-": 3709,
      "223372036854775": 3710,
      "ãĢį": 3711,
      "Ġdic": 3712,
      "ãĤ½ãĥ¼ãĥĪ": 3713,
      "ish": 3714,
      ")])": 3715,
      "åį": 3716,
      "matrix": 3717,
      "ĠST": 3718,
      "ending": 3719,
      "75": 3720,
      "][(": 3721,
      "...>": 3722,
      "ĠType": 3723,
      "dic": 3724,
      "æĦı": 3725,
      "Ġresize": 3726,
      "Ġforr": 3727,
      "Ġnr": 3728,
      "1234": 3729,
      "ĠMatrix": 3730,
      "::::::::": 3731,
      "æī": 3732,
      "gon": 3733,
      "angle": 3734,
      "ning": 3735,
      "CharArray": 3736,
      "ä¸Ń": 3737,
      "ĠPair": 3738,
      "ĠCh": 3739,
      "untime": 3740,
      "CLOSED": 3741,
      "02": 3742,
      "<>": 3743,
      "Ġfloor": 3744,
      "itive": 3745,
      "6433": 3746,
      "InputStreamReader": 3747,
      "141592653589793238462": 3748,
      "items": 3749,
      "Ġasc": 3750,
      "Ġme": 3751,
      "ãģļ": 3752,
      "DEFIN": 3753,
      "UL": 3754,
      "è¿": 3755,
      "]=='.": 3756,
      ">'": 3757,
      "px": 3758,
      "lect": 3759,
      "eb": 3760,
      "147483": 3761,
      "Ġreduce": 3762,
      "Ġ(!(": 3763,
      "555": 3764,
      "Ġmodulo": 3765,
      "Ġshort": 3766,
      "Ġsieve": 3767,
      "Ġfs": 3768,
      "]==-": 3769,
      "çĽ´": 3770,
      "æ¸": 3771,
      "yo": 3772,
      "ĠĠĊĠĠĠ": 3773,
      "71": 3774,
      "éķ·": 3775,
      "ĠHashMap": 3776,
      "Ġinitial": 3777,
      "olygon": 3778,
      "gex": 3779,
      "mpty": 3780,
      "123": 3781,
      "éĻ¤": 3782,
      "?????Â": 3783,
      "ĠRange": 3784,
      ")<=": 3785,
      "loops": 3786,
      "Ġmk": 3787,
      "ãĥªãĤ¹ãĥĪ": 3788,
      "ĠCH": 3789,
      "//------------------------------------------": 3790,
      "ark": 3791,
      "Ġho": 3792,
      "putchar": 3793,
      "é¡": 3794,
      "éłħ": 3795,
      "CKS": 3796,
      "UnionFind": 3797,
      "Ġsep": 3798,
      "Args": 3799,
      "ĊĠĠĊĠĠ": 3800,
      ")((": 3801,
      "Ġplus": 3802,
      "ĠTree": 3803,
      "Ġ(__": 3804,
      "Ġrsort": 3805,
      "cos": 3806,
      "Ġapp": 3807,
      "popcountll": 3808,
      "ãģĿãģ®": 3809,
      ">//": 3810,
      ")-(": 3811,
      "mini": 3812,
      "impl": 3813,
      "isE": 3814,
      "seconds": 3815,
      "Ġpt": 3816,
      "sec": 3817,
      "Ġfore": 3818,
      "DEFINES": 3819,
      "ãģķãĤĮ": 3820,
      "^(": 3821,
      "åĢįæķ°": 3822,
      "Ġ[-": 3823,
      "ãĥĲ": 3824,
      "(&": 3825,
      "++++++++": 3826,
      "rk": 3827,
      "ĠMy": 3828,
      "ards": 3829,
      "ĠVVI": 3830,
      "None": 3831,
      "åĪĩ": 3832,
      "Ġrandom": 3833,
      "âłĢ": 3834,
      "Ġtx": 3835,
      "ä»¥ä¸ĭ": 3836,
      "Ġback": 3837,
      "'))": 3838,
      "Ġsigned": 3839,
      "MN": 3840,
      "Ġcop": 3841,
      "level": 3842,
      "ĠBS": 3843,
      "Ġgroup": 3844,
      "son": 3845,
      "TY": 3846,
      "]-=": 3847,
      "Pow": 3848,
      "Ġvr": 3849,
      "ãĤ¤ãĥ³": 3850,
      "rad": 3851,
      "\");}": 3852,
      "(!(": 3853,
      "ãģ®è¦ģç´ł": 3854,
      "AD": 3855,
      "gi": 3856,
      "@@@": 3857,
      "ĠtoString": 3858,
      "Ġtokenizer": 3859,
      "locked": 3860,
      "gg": 3861,
      "inp": 3862,
      "ãģĵãģĵ": 3863,
      "ãĥİãĥ¼ãĥī": 3864,
      "éĩį": 3865,
      "Tuple": 3866,
      "dt": 3867,
      "Ġ{//": 3868,
      "Ġbuflen": 3869,
      "Ġreversed": 3870,
      "\")<<": 3871,
      ");--": 3872,
      "è¡¨": 3873,
      "Ġdin": 3874,
      "Un": 3875,
      "}*/": 3876,
      "down": 3877,
      "Ġpass": 3878,
      "unroll": 3879,
      "gt": 3880,
      "ãĤŃ": 3881,
      "Ġordered": 3882,
      "ĠModint": 3883,
      "Ġgc": 3884,
      "wh": 3885,
      "side": 3886,
      "Ġunique": 3887,
      "1415926535897932384626433": 3888,
      "ãģķãģĦ": 3889,
      "unite": 3890,
      "ĠComb": 3891,
      "Ġus": 3892,
      "Ġpo": 3893,
      "Ġreplace": 3894,
      "Vi": 3895,
      "âķĲ": 3896,
      "bal": 3897,
      "Ġzip": 3898,
      "xxxxxxxxxxxxxxxx": 3899,
      "ĠLLINF": 3900,
      "////////////////////////////////////////////////////////////////": 3901,
      "GCD": 3902,
      "æĿ": 3903,
      "*)": 3904,
      ">='": 3905,
      "Flush": 3906,
      "FILE": 3907,
      "env": 3908,
      "gc": 3909,
      "Ġ\",\";": 3910,
      "Ġseen": 3911,
      ">>&": 3912,
      "Chars": 3913,
      "task": 3914,
      "change": 3915,
      "----------------------------": 3916,
      "Ġskip": 3917,
      "steady": 3918,
      "ĠFORR": 3919,
      "maxi": 3920,
      "prtln": 3921,
      "ĠSum": 3922,
      "Di": 3923,
      "Ġuni": 3924,
      "Ġsmall": 3925,
      "ç·": 3926,
      "ear": 3927,
      "pro": 3928,
      "ION": 3929,
      "Ġfastio": 3930,
      "sta": 3931,
      "Ġnex": 3932,
      "region": 3933,
      "Ġfractions": 3934,
      "ãģ§ãģĤãĤĭ": 3935,
      "åŀĭ": 3936,
      "å¾Į": 3937,
      "ghi": 3938,
      "vide": 3939,
      "Matrix": 3940,
      "=='-')": 3941,
      "[::-": 3942,
      "build": 3943,
      "Ġnumbers": 3944,
      "95": 3945,
      "ĠDe": 3946,
      "ĊĉĠĠĠĠ": 3947,
      "ĠUNI": 3948,
      "Ġ>;": 3949,
      "';}": 3950,
      "State": 3951,
      "Ġgen": 3952,
      "=((": 3953,
      "VER": 3954,
      "Ġwith": 3955,
      "ud": 3956,
      "Ġsl": 3957,
      "UF": 3958,
      "ĠhasNextByte": 3959,
      "Ġbi": 3960,
      "ĊĉĊĉ": 3961,
      "Mul": 3962,
      "Ġwar": 3963,
      "Cnt": 3964,
      "Ġ\"<<(": 3965,
      "Impossible": 3966,
      "cand": 3967,
      "ãĥĥãĥĪ": 3968,
      "ĊĊĠĠĠĠ": 3969,
      "Ġdelete": 3970,
      "ä»¥ä¸Ĭ": 3971,
      "åĲĳ": 3972,
      "ĠIterator": 3973,
      "Ġunion": 3974,
      "//}": 3975,
      "vw": 3976,
      "ãĤ°ãĥ©ãĥķ": 3977,
      "'+": 3978,
      "Ġchk": 3979,
      "delete": 3980,
      "ä½Ļ": 3981,
      "Ġins": 3982,
      "ãĤĪãģĨ": 3983,
      "æıĽ": 3984,
      "ĊĠĠĠĠĠĠĠĠĠĠĠĠĊĠĠĠĠĠĠĠĠĠĠĠ": 3985,
      "Ġbitset": 3986,
      "fin": 3987,
      "Root": 3988,
      "Ex": 3989,
      "223372036854775807": 3990,
      "ãģ®åĢ¤": 3991,
      "unlocked": 3992,
      "seq": 3993,
      "âĪ": 3994,
      "Ġds": 3995,
      "stderr": 3996,
      "ummy": 3997,
      "wwww": 3998,
      "QUE": 3999,
      "^^^^": 4000,
      "link": 4001,
      "Ġbefore": 4002,
      "âĨĵâĨĵ": 4003,
      "Ġfound": 4004,
      "ãĤµ": 4005,
      "Ts": 4006,
      "Weight": 4007,
      "Ġnw": 4008,
      "Ġ1000000000000000000": 4009,
      "())))": 4010,
      ")>=": 4011,
      "ĠEX": 4012,
      "hasNextByte": 4013,
      "gen": 4014,
      ":\"": 4015,
      "Â¦": 4016,
      "----------------------------------------------------------------": 4017,
      "ãĤĦ": 4018,
      "147483647": 4019,
      "[_": 4020,
      "overload": 4021,
      "YY": 4022,
      "text": 4023,
      "req": 4024,
      "ĠInputMismatchException": 4025,
      "Ġcoprime": 4026,
      "ãĤ«": 4027,
      "Inv": 4028,
      "Ġremove": 4029,
      "Ġ\"[\"": 4030,
      "çŁ": 4031,
      "Ċĉĉĉĉĉĉĉĉ": 4032,
      "Ġba": 4033,
      "Ġ``": 4034,
      "0000000": 4035,
      "334": 4036,
      "ott": 4037,
      ".#": 4038,
      "ket": 4039,
      "__);": 4040,
      "ko": 4041,
      "kens": 4042,
      "å¿ħ": 4043,
      "Ġ/**": 4044,
      "card": 4045,
      "CH": 4046,
      "ya": 4047,
      "combination": 4048,
      "æľĢå¤§åħ¬": 4049,
      "Ġvertex": 4050,
      "Ġys": 4051,
      "yd": 4052,
      "Ġhoge": 4053,
      "forr": 4054,
      "ĊĉĠĠ": 4055,
      "ãģĹãģªãģĦ": 4056,
      "Ġnn": 4057,
      "Ġlimit": 4058,
      "rection": 4059,
      "ãĤ¨": 4060,
      "Ġsource": 4061,
      "Ġdig": 4062,
      "ãĤĪãĤĬ": 4063,
      "******": 4064,
      "))/": 4065,
      "])-": 4066,
      "cstdint": 4067,
      "Ġlis": 4068,
      "initial": 4069,
      "indexed": 4070,
      "nC": 4071,
      "Ġdif": 4072,
      "aaaaaaaaaaaaaaaaaaaaaaaaaaaaaaaaaaaaaaaaaaaaaaaaaaaaaaaaaaaaaaaa": 4073,
      "ĠIs": 4074,
      "ãģ«ãģĻãĤĭ": 4075,
      "uery": 4076,
      "Ġcx": 4077,
      "000000000": 4078,
      "Ġ29": 4079,
      "ï¾": 4080,
      "cal": 4081,
      "Ġ2000": 4082,
      "Left": 4083,
      ";}}": 4084,
      "è²": 4085,
      "Ġgoal": 4086,
      "1415926535897932384626433832": 4087,
      "Ġwidth": 4088,
      "ĠPRINT": 4089,
      "IMPOSSIBLE": 4090,
      "here": 4091,
      "Is": 4092,
      "toi": 4093,
      "('\\": 4094,
      "å¤ĸ": 4095,
      "slr": 4096,
      "primes": 4097,
      "gr": 4098,
      "ctools": 4099,
      "Fr": 4100,
      "toCharArray": 4101,
      "nom": 4102,
      "â£¿": 4103,
      "ãģĹãģ¾ãģĻ": 4104,
      "ãĤĴè¨": 4105,
      "lice": 4106,
      "Monoid": 4107,
      "Ġinp": 4108,
      "Ġneed": 4109,
      "divisor": 4110,
      "]={};": 4111,
      "ĊĊĊĠ": 4112,
      "ãĥ¬": 4113,
      "Ġiota": 4114,
      "???Â": 4115,
      "oooooooooooooooo": 4116,
      "ument": 4117,
      "ķı": 4118,
      "Ġ21": 4119,
      "åľ¨": 4120,
      "è·¯": 4121,
      "abcdefghi": 4122,
      "-()": 4123,
      "Ġword": 4124,
      "ãģ«ãģªãĤĭ": 4125,
      "141592653589793238462643383279": 4126,
      "uc": 4127,
      "oute": 4128,
      "group": 4129,
      "Ġpoints": 4130,
      "âĸĪâĸĪâĸĪ": 4131,
      "Ġrad": 4132,
      "ply": 4133,
      "npos": 4134,
      ",,,,": 4135,
      "#####": 4136,
      ")...);": 4137,
      "Ġlinf": 4138,
      "Ġday": 4139,
      "Ġraw": 4140,
      "ä½¿ãģĨ": 4141,
      "375": 4142,
      "ĠNULL": 4143,
      "Distance": 4144,
      "EC": 4145,
      "Ġvpii": 4146,
      "ZZ": 4147,
      "Ġinstance": 4148,
      "Ġ40": 4149,
      "++;}": 4150,
      "ç«": 4151,
      "nextLine": 4152,
      "condition": 4153,
      "big": 4154,
      "nr": 4155,
      "å°ıãģķãģĦ": 4156,
      "æĽ´æĸ°": 4157,
      "Ġatcoder": 4158,
      ">()": 4159,
      "sic": 4160,
      "ãģ¸": 4161,
      "æľĢå¤§åħ¬ç´Ħæķ°": 4162,
      "Ġvpll": 4163,
      "])*": 4164,
      "ãģ¨ãģĹãģ¦": 4165,
      "Ġdep": 4166,
      "ãĥĥãĤ¯": 4167,
      "001": 4168,
      "rui": 4169,
      "Ġ'?": 4170,
      "Ġseq": 4171,
      "344": 4172,
      "ĠAns": 4173,
      "çŃ": 4174,
      "å±": 4175,
      "Ġbits": 4176,
      "999999999": 4177,
      "Ġsout": 4178,
      "EF": 4179,
      "])){": 4180,
      "ĠDBG": 4181,
      "ACK": 4182,
      "author": 4183,
      "llint": 4184,
      "___": 4185,
      "#!": 4186,
      "]!=-": 4187,
      "Ġargv": 4188,
      "Ġim": 4189,
      "isEmpty": 4190,
      "Ġpint": 4191,
      "çµĲ": 4192,
      "Ġtext": 4193,
      "Vec": 4194,
      "eration": 4195,
      "OutputStream": 4196,
      "TH": 4197,
      "dig": 4198,
      "tc": 4199,
      "ĊĊĊĊĊĊĊĊĊĊĊĊĊĊĊĊ": 4200,
      "OS": 4201,
      "ãĥī": 4202,
      "ĠPP": 4203,
      "ottom": 4204,
      "ĠIter": 4205,
      "substring": 4206,
      "StringBuilder": 4207,
      "AG": 4208,
      "Ġvint": 4209,
      "Comb": 4210,
      "fter": 4211,
      ";;;;": 4212,
      "tl": 4213,
      "US": 4214,
      "ĊĠĠĠĠĠĠĠĠĉ": 4215,
      "Ġ'#'": 4216,
      "){//": 4217,
      "mark": 4218,
      "??????????????": 4219,
      "åĲĦ": 4220,
      "Ġprintln": 4221,
      "Bit": 4222,
      "575": 4223,
      "blem": 4224,
      "ĠObject": 4225,
      "]]);": 4226,
      "olution": 4227,
      "Ġblock": 4228,
      "âĶĢâĶĢâĶĢâĶĢ": 4229,
      "Ty": 4230,
      "rected": 4231,
      "lang": 4232,
      "acter": 4233,
      "sq": 4234,
      "Ġ[[]": 4235,
      "ĠUn": 4236,
      "Ġnullopt": 4237,
      "mb": 4238,
      "More": 4239,
      "åı·": 4240,
      "RAT": 4241,
      "Ġarea": 4242,
      "hen": 4243,
      "ðŁ": 4244,
      "del": 4245,
      "Ġproduct": 4246,
      "AN": 4247,
      ":-": 4248,
      "());}": 4249,
      "dif": 4250,
      "åģ": 4251,
      "anc": 4252,
      "ĊĉĉĠ": 4253,
      "Ġ100005": 4254,
      "377": 4255,
      "å½": 4256,
      "ãĤº": 4257,
      "ĠVS": 4258,
      "Right": 4259,
      ");//": 4260,
      "):(": 4261,
      "Ġheappush": 4262,
      "ĩæķ°": 4263,
      "cfloat": 4264,
      "usr": 4265,
      "\\\\\\\\\\\\\\\\\\\\\\\\\\\\\\\\": 4266,
      "acity": 4267,
      "Ġcont": 4268,
      "Ġam": 4269,
      "ale": 4270,
      "200010": 4271,
      "âĸĢâĸĢ": 4272,
      "Ġfunctools": 4273,
      "Ġdown": 4274,
      "we": 4275,
      "POUT": 4276,
      "(#": 4277,
      "As": 4278,
      "ĠĠĠĠĠĠĠĠĠĠĠĠĠĠĠĠĠ": 4279,
      "tos": 4280,
      "ivot": 4281,
      "åĲ«": 4282,
      "5000": 4283,
      "Ġ1001001001": 4284,
      "Ġ\"[\";": 4285,
      ")=='": 4286,
      "idate": 4287,
      "ãĥĩãĥ¼ãĤ¿": 4288,
      "Ġoptional": 4289,
      "Ġhalf": 4290,
      "untimeException": 4291,
      "UP": 4292,
      "Ġinstanceof": 4293,
      "nex": 4294,
      "ĠCLO": 4295,
      "wt": 4296,
      "Ġmm": 4297,
      "ĊĠĠĠĠĊĠ": 4298,
      "run": 4299,
      "Ġchr": 4300,
      "onent": 4301,
      "Idx": 4302,
      "ï¿£": 4303,
      "ah": 4304,
      "hasMore": 4305,
      "LD": 4306,
      "lear": 4307,
      "best": 4308,
      "ilter": 4309,
      "544": 4310,
      "åĴĮ": 4311,
      "ĠEACH": 4312,
      "jkl": 4313,
      "ï¼ļ": 4314,
      "interface": 4315,
      "=\"<<": 4316,
      "Ġ(_": 4317,
      "''''": 4318,
      "serve": 4319,
      "safe": 4320,
      "(++": 4321,
      ",...)": 4322,
      "Ġabc": 4323,
      "æº": 4324,
      "Ġrepeat": 4325,
      "uration": 4326,
      "LP": 4327,
      "Ġ28": 4328,
      "ĠRead": 4329,
      "TLE": 4330,
      "Length": 4331,
      "æ¼Ķç®Ĺ": 4332,
      "88888888": 4333,
      "||(": 4334,
      "work": 4335,
      "Ġ200": 4336,
      "nw": 4337,
      "inverse": 4338,
      "åĢĭæķ°": 4339,
      "(){}": 4340,
      "887": 4341,
      "rrep": 4342,
      "Add": 4343,
      "Ġyou": 4344,
      "Ġpython": 4345,
      "register": 4346,
      "points": 4347,
      "877": 4348,
      "Ġtra": 4349,
      "LC": 4350,
      "1111111111111111": 4351,
      "]]+": 4352,
      "Ġreal": 4353,
      "yn": 4354,
      "off": 4355,
      "ãĤĴæĮ": 4356,
      "ĊĠĠĉ": 4357,
      ",__": 4358,
      "ĊĊĊĊĊ": 4359,
      "210": 4360,
      "^=": 4361,
      "ian": 4362,
      "[{": 4363,
      "Ġ\")\"": 4364,
      "Ġeval": 4365,
      ")>(": 4366,
      "eros": 4367,
      "Ġ}}}": 4368,
      "________________": 4369,
      "EN": 4370,
      "Â¶": 4371,
      "keys": 4372,
      "Ġgy": 4373,
      "ING": 4374,
      "ç·ļ": 4375,
      "ĠTuple": 4376,
      "Ġconn": 4377,
      "Flag": 4378,
      "Ġãģ¨": 4379,
      "Ġelem": 4380,
      "quence": 4381,
      "nu": 4382,
      "Ġcombinations": 4383,
      "ķæķ°": 4384,
      ".#.#": 4385,
      "Ġ25": 4386,
      "common": 4387,
      "Ġwork": 4388,
      "Name": 4389,
      "Ġmultiset": 4390,
      "regex": 4391,
      "Ġang": 4392,
      "05": 4393,
      "PR": 4394,
      "PQ": 4395,
      "dle": 4396,
      "ç©į": 4397,
      "Ġ##": 4398,
      "ĠPOW": 4399,
      "eq": 4400,
      "so": 4401,
      "={": 4402,
      "two": 4403,
      "the": 4404,
      "ux": 4405,
      "łæķ°": 4406,
      "gar": 4407,
      "cw": 4408,
      "è¦ĭ": 4409,
      "Ġmodular": 4410,
      "ĠĊĠĠĠĠĠĠĠĠĠĠĠĠĠĠĠ": 4411,
      "Init": 4412,
      "ĊĠĠĠĠĠĠĊĠĠĠĠĠ": 4413,
      "mand": 4414,
      "ĠFAST": 4415,
      "Id": 4416,
      "åŃĺ": 4417,
      "å¸": 4418,
      "Arr": 4419,
      "word": 4420,
      "ĠSort": 4421,
      "æŃ": 4422,
      "æĺ": 4423,
      "RR": 4424,
      "é«": 4425,
      "çĦ": 4426,
      "sl": 4427,
      "apsed": 4428,
      "ä½ķ": 4429,
      "Ġstringstream": 4430,
      "cum": 4431,
      "popleft": 4432,
      "Possible": 4433,
      "checked": 4434,
      "Ġtimes": 4435,
      "Ġtc": 4436,
      "system": 4437,
      "ky": 4438,
      "Ġdivisors": 4439,
      "é«ĺ": 4440,
      "default": 4441,
      "æ¨": 4442,
      "ĠäºĮ": 4443,
      "AI": 4444,
      "vd": 4445,
      "CodePoint": 4446,
      "Ġcontainer": 4447,
      "strlen": 4448,
      "thod": 4449,
      "ĠVec": 4450,
      "hh": 4451,
      "Ġnv": 4452,
      "Ġ'.'": 4453,
      "Ġwriter": 4454,
      "place": 4455,
      "2222": 4456,
      "Score": 4457,
      "å®Ł": 4458,
      "gx": 4459,
      "ĠVL": 4460,
      "area": 4461,
      "éĩı": 4462,
      "å¿ħè¦ģ": 4463,
      "multiset": 4464,
      "keta": 4465,
      "Ġban": 4466,
      "Ġfabs": 4467,
      "ãĤ³ãĥ³": 4468,
      "ãģ®æĻĤ": 4469,
      "ĠLCM": 4470,
      "ãĤµãĤ¤": 4471,
      "URE": 4472,
      "Ġregion": 4473,
      "å¤īæķ°": 4474,
      "ev": 4475,
      "Mint": 4476,
      "War": 4477,
      "Ġpattern": 4478,
      "Ġfprintf": 4479,
      "stu": 4480,
      "tokenizer": 4481,
      "Ġunit": 4482,
      "ï¼ģï¼ģ": 4483,
      "vvi": 4484,
      "oko": 4485,
      "visit": 4486,
      "åıĸå¾Ĺ": 4487,
      "RATIO": 4488,
      "ĠABC": 4489,
      "Collections": 4490,
      "File": 4491,
      "ãģ®åł´åĲĪ": 4492,
      "Ġisp": 4493,
      "Ġopen": 4494,
      "Parent": 4495,
      "abcdefghijkl": 4496,
      "Ġdone": 4497,
      "Ġcard": 4498,
      "tasks": 4499,
      "ä¿Ĥ": 4500,
      "()>": 4501,
      "AAAAAAAAAAAAAAAA": 4502,
      ")?(": 4503,
      "ãĤ»": 4504,
      "sim": 4505,
      "va": 4506,
      "vt": 4507,
      "ç¤": 4508,
      "Counter": 4509,
      "Ġremain": 4510,
      "ĊĠĉ": 4511,
      "cou": 4512,
      "åŃĲ": 4513,
      "dest": 4514,
      "appendCodePoint": 4515,
      "ĠUNIQUE": 4516,
      "SegmentTree": 4517,
      "Ġ<<=": 4518,
      "è¿Ķ": 4519,
      "ãģ§åī²": 4520,
      "))+": 4521,
      "Ġ//=": 4522,
      "ide": 4523,
      "'\\": 4524,
      "EX": 4525,
      "Â¦Â¦": 4526,
      "WAR": 4527,
      "Ġcal": 4528,
      "åı¯": 4529,
      "Ġpermutation": 4530,
      "åħ¨ãģ¦": 4531,
      "Ġrer": 4532,
      "ocess": 4533,
      "Ġln": 4534,
      "ĠModInteger": 4535,
      "Decimal": 4536,
      "ell": 4537,
      "traits": 4538,
      "Ġmark": 4539,
      "Ġsegment": 4540,
      "æŀ": 4541,
      "...));": 4542,
      "ĠGet": 4543,
      "IS": 4544,
      "Ġllong": 4545,
      "ĠPi": 4546,
      "Ġver": 4547,
      "Ġtie": 4548,
      "ield": 4549,
      "Tail": 4550,
      "Ġsqr": 4551,
      "MS": 4552,
      "Ġsec": 4553,
      "çŁŃ": 4554,
      "256": 4555,
      "5733": 4556,
      "ĠDebug": 4557,
      "Ġclear": 4558,
      ":(": 4559,
      "mas": 4560,
      "ĠĠĠĠĠĠĠĠĠĠĠĠĠĠĠĠĠĠĠĠĠĠĠĠĠĠĠĠĠĠĠĠĠĠĠĠĠĠĠĠĠĠĠĠĠĠĠĠĠĠĠĠĠĠĠĠĠĠĠĠĠĠĠĠĠĠĠĠĠĠĠĠĠĠĠĠĠĠĠĠĠĠĠĠĠĠĠĠĠĠĠĠĠĠĠĠĠĠĠĠĠĠĠĠĠĠĠĠĠĠĠĠĠĠĠĠĠĠĠĠĠĠĠĠĠĠĠĠ": 4561,
      "Ġ99": 4562,
      "ĠDi": 4563,
      "\"),": 4564,
      "ger": 4565,
      "SegTree": 4566,
      "Ġsiki": 4567,
      "cr": 4568,
      "goal": 4569,
      "Ġintersect": 4570,
      "ĠDUMPOUT": 4571,
      "ĠĠĠĠĠĠĠĠĠĠĠĠĠĠĠĠĠĠĠĠ": 4572,
      "ĠPri": 4573,
      "Ġtri": 4574,
      "upp": 4575,
      "Ġdict": 4576,
      "Ġ&=": 4577,
      "cont": 4578,
      "enable": 4579,
      "âłĢâłĢ": 4580,
      "tokens": 4581,
      "<_": 4582,
      "007": 4583,
      "any": 4584,
      "åķı": 4585,
      "ãģ§ãģ¯": 4586,
      "Digit": 4587,
      "åĽłæķ°": 4588,
      "ãĤĴä½ľ": 4589,
      "Ġparse": 4590,
      "valid": 4591,
      "sent": 4592,
      "Ġany": 4593,
      "ved": 4594,
      "ĠPLL": 4595,
      "ä½įç½®": 4596,
      "nj": 4597,
      "Ġdw": 4598,
      "MMMMMMMMMMMMMMMM": 4599,
      "Ġãĥ": 4600,
      "Ġtp": 4601,
      "ãĥ¥": 4602,
      "apply": 4603,
      "Ġfst": 4604,
      "ãĤ§": 4605,
      "çµĤ": 4606,
      "655": 4607,
      "654": 4608,
      "Flow": 4609,
      "âĨĴ": 4610,
      "abcdefghijklmn": 4611,
      "Function": 4612,
      "lp": 4613,
      "ral": 4614,
      "Âł": 4615,
      "ĠCIN": 4616,
      "ç¤º": 4617,
      "optional": 4618,
      "Ġ'-": 4619,
      "Ġendregion": 4620,
      "Ġtm": 4621,
      "small": 4622,
      "lobal": 4623,
      "åº¦": 4624,
      "CO": 4625,
      "Ġperm": 4626,
      "1000000000": 4627,
      "#!/": 4628,
      "åĳ": 4629,
      "ãĥ³ãĥĪ": 4630,
      "ĠĠĠĠĊĠĠĠ": 4631,
      "names": 4632,
      "360": 4633,
      "Class": 4634,
      "½åĬł": 4635,
      "WI": 4636,
      "Ġcontains": 4637,
      "ABLE": 4638,
      "Ġ&...": 4639,
      "ãĤ·": 4640,
      "section": 4641,
      "å·¦": 4642,
      "mode": 4643,
      "NNNN": 4644,
      "ãģ«ãģ¤": 4645,
      "board": 4646,
      "Ġ-(": 4647,
      "ĠSet": 4648,
      "Ġ126": 4649,
      "ove": 4650,
      ")--)": 4651,
      "reserve": 4652,
      "ãģĮãģĤãĤĭ": 4653,
      "Path": 4654,
      "shall": 4655,
      ",+": 4656,
      "quare": 4657,
      "ĠãĤĴ": 4658,
      "ĠSUM": 4659,
      ")>>": 4660,
      "dj": 4661,
      "Ġheappop": 4662,
      "prot": 4663,
      "Ġrd": 4664,
      "TR": 4665,
      "Ġmoney": 4666,
      "chmin": 4667,
      "&&&&&&&&": 4668,
      "]);}": 4669,
      "éĻį": 4670,
      "ĠRuntimeException": 4671,
      "Ġary": 4672,
      "Ġdq": 4673,
      "cket": 4674,
      "Ġci": 4675,
      "WARN": 4676,
      "åħ¬åĢįæķ°": 4677,
      "+-+-+-+-": 4678,
      "2020": 4679,
      "åıĸãĤĬ": 4680,
      "Read": 4681,
      "Ġvisit": 4682,
      "mll": 4683,
      "VL": 4684,
      "ãģ§ãģįãĤĭ": 4685,
      "popcnt": 4686,
      "Ġ<<(": 4687,
      "Ġ{{{": 4688,
      "Table": 4689,
      "Ġka": 4690,
      "most": 4691,
      "ccw": 4692,
      "rm": 4693,
      "poll": 4694,
      "nb": 4695,
      "abcdefghijklmnop": 4696,
      "CRT": 4697,
      "PL": 4698,
      "dump": 4699,
      "ĠDI": 4700,
      "INGS": 4701,
      "fp": 4702,
      "ĠWeight": 4703,
      ")&&": 4704,
      "ĠCircle": 4705,
      "æľĢçŁŃ": 4706,
      "677": 4707,
      "rdbuf": 4708,
      "...))": 4709,
      "[]){": 4710,
      "ĠULL": 4711,
      "reated": 4712,
      "XY": 4713,
      "})": 4714,
      "æľĢå°ıåħ¬åĢįæķ°": 4715,
      "`.": 4716,
      "maxx": 4717,
      "Ġ\"%": 4718,
      "BIT": 4719,
      "pc": 4720,
      "ãĤµãĤ¤ãĤº": 4721,
      "ram": 4722,
      "vx": 4723,
      "short": 4724,
      "ĠComparator": 4725,
      "Ġsystem": 4726,
      "ãĤ¸": 4727,
      "~~~~~~~~": 4728,
      "ç´łåĽłæķ°": 4729,
      "egral": 4730,
      "SECURE": 4731,
      "ĠEND": 4732,
      "å§ĭ": 4733,
      "xyz": 4734,
      "çµĦ": 4735,
      "Th": 4736,
      "ĊĠĠĠĠĊ": 4737,
      "formatter": 4738,
      "éĢ£": 4739,
      "orityQueue": 4740,
      "æ¬¡åħĥ": 4741,
      "alpha": 4742,
      "**(": 4743,
      "))))": 4744,
      "]=='#')": 4745,
      "Ġconv": 4746,
      "Ġ10000000": 4747,
      "Ġ2147483647": 4748,
      "Ġascending": 4749,
      "box": 4750,
      "error": 4751,
      "Ġso": 4752,
      "Ġ9223372036854775807": 4753,
      "Ġinfo": 4754,
      "Ġjo": 4755,
      "656": 4756,
      "################################": 4757,
      "Ġthan": 4758,
      "æľĢå¤§åĢ¤": 4759,
      "wd": 4760,
      "1005": 4761,
      "loyd": 4762,
      "EG": 4763,
      "ãģ£ãģ¦ãģĦãĤĭ": 4764,
      "!=-": 4765,
      "????????????": 4766,
      "999999999999": 4767,
      "Ġpx": 4768,
      "ĠCOMinit": 4769,
      "WARNINGS": 4770,
      "++);": 4771,
      "ĠOutput": 4772,
      "wk": 4773,
      "ĊĠĠĠĠĠĠĠĠĠĠĠĠĠĠĠĠĠĠĠĠ": 4774,
      "$$$$$$$$": 4775,
      "ĠPow": 4776,
      "ords": 4777,
      "CCCC": 4778,
      "Ġminv": 4779,
      ">())": 4780,
      "Ġax": 4781,
      "ĠVar": 4782,
      "âĶģ": 4783,
      "stor": 4784,
      "æĹ": 4785,
      "eed": 4786,
      "cb": 4787,
      "Ġ180": 4788,
      "é¡Į": 4789,
      "(\".": 4790,
      "nam": 4791,
      "å±ŀ": 4792,
      "ĠVal": 4793,
      "Ġboard": 4794,
      "Ġ22": 4795,
      "Tokens": 4796,
      "çķªåı·": 4797,
      "????????Â": 4798,
      "kaijo": 4799,
      "part": 4800,
      "xb": 4801,
      "Ġparents": 4802,
      "nh": 4803,
      "éĢĨåħĥ": 4804,
      "667": 4805,
      "licit": 4806,
      "ference": 4807,
      "33333333": 4808,
      "Up": 4809,
      "Ġexist": 4810,
      "444": 4811,
      "Ġpref": 4812,
      "times": 4813,
      "PEN": 4814,
      "Ġ///": 4815,
      "Ġ>(": 4816,
      "++]=": 4817,
      "ĠAlloc": 4818,
      "ãĤ¹ãĤ¿": 4819,
      "ele": 4820,
      "ãģłãģĳ": 4821,
      "hasMoreTokens": 4822,
      "binary": 4823,
      "Ġmode": 4824,
      "Ġvvb": 4825,
      "ACE": 4826,
      "End": 4827,
      "dbg": 4828,
      "{};": 4829,
      "iii": 4830,
      "ĠPrint": 4831,
      "seed": 4832,
      "ç¯": 4833,
      "ĠãģĮ": 4834,
      "digits": 4835,
      "ĠMap": 4836,
      "ĠDUMP": 4837,
      "Ġlink": 4838,
      "Ġposition": 4839,
      "////////////": 4840,
      "VEC": 4841,
      "ha": 4842,
      "åĨħ": 4843,
      "pattern": 4844,
      "tttt": 4845,
      "Ġblack": 4846,
      ")?\"": 4847,
      "Pri": 4848,
      "Ġcos": 4849,
      "block": 4850,
      "qui": 4851,
      "âĸĵâĸĵâĸĵâĸĵ": 4852,
      "Res": 4853,
      "ten": 4854,
      "Ġcp": 4855,
      "integer": 4856,
      "Ġ++(": 4857,
      "heappush": 4858,
      "ĠĊĠĠĠĠĠ": 4859,
      "Ġti": 4860,
      "Ġbc": 4861,
      "Ġ\"=\"": 4862,
      "<<\")": 4863,
      "Ġpd": 4864,
      "abcdefghijklmnopqr": 4865,
      "une": 4866,
      "ï¿£ï¿£": 4867,
      "Deque": 4868,
      "288": 4869,
      "bfs": 4870,
      "?????????": 4871,
      "Ġ101": 4872,
      "ï¼Ł": 4873,
      "Ġopt": 4874,
      "forslr": 4875,
      "Ġãģ§": 4876,
      "357": 4877,
      "cn": 4878,
      "HI": 4879,
      "[:-": 4880,
      "éĢļ": 4881,
      "à¦": 4882,
      ",'": 4883,
      "Ġda": 4884,
      "Ġten": 4885,
      "Ġdest": 4886,
      "cf": 4887,
      "entry": 4888,
      "()/": 4889,
      "accumulate": 4890,
      "...))>(": 4891,
      "ä»¶": 4892,
      "â£¿â£¿": 4893,
      "çĦ¡": 4894,
      "Col": 4895,
      "è¤": 4896,
      "Inverse": 4897,
      "Div": 4898,
      "Ġwe": 4899,
      "Ġstoi": 4900,
      "xi": 4901,
      "ï½¯": 4902,
      "]]==": 4903,
      "éĢ²": 4904,
      "Ġyour": 4905,
      "ĸãĥ«": 4906,
      "âĸĦâĸĦ": 4907,
      "compareTo": 4908,
      "ifi": 4909,
      "sr": 4910,
      "=\"\";": 4911,
      "ĠFind": 4912,
      "STR": 4913,
      "800": 4914,
      "JK": 4915,
      "Ġ\"\");": 4916,
      "lg": 4917,
      "ĠCOUT": 4918,
      "Ġfront": 4919,
      "Ġlp": 4920,
      "Ġelements": 4921,
      "ĠInit": 4922,
      "Ġprod": 4923,
      "lm": 4924,
      "ç§": 4925,
      "lc": 4926,
      "segment": 4927,
      "war": 4928,
      "(\"<<": 4929,
      "xor": 4930,
      "layer": 4931,
      "ãģĮåĲĮãģĺ": 4932,
      "aka": 4933,
      "Ġhan": 4934,
      "ĠSC": 4935,
      "FT": 4936,
      "Ġ39": 4937,
      "ĠFile": 4938,
      "Ġstrlen": 4939,
      "ı¾": 4940,
      "ï¿½ï¿½ï¿½ï¿½ï¿½ï¿½ï¿½ï¿½": 4941,
      "width": 4942,
      "++--++--++--++--": 4943,
      "cpy": 4944,
      "}};": 4945,
      "Ġloc": 4946,
      "TC": 4947,
      "contests": 4948,
      "160": 4949,
      "rat": 4950,
      "MX": 4951,
      "Ġlarge": 4952,
      "197": 4953,
      "pint": 4954,
      "lines": 4955,
      "din": 4956,
      ")&&(": 4957,
      "ĊĠĊĠĠĠĠĠĠĠ": 4958,
      "Ġite": 4959,
      "ĉĊĉ": 4960,
      "/********************************": 4961,
      "OPEN": 4962,
      "chmax": 4963,
      "ä½ĵ": 4964,
      "vr": 4965,
      "Ġyn": 4966,
      "Ġextgcd": 4967,
      "ĠäºĮéłħ": 4968,
      "ãĤ¦": 4969,
      "union": 4970,
      "ĠĠĠĠĠĠĠĠĠĠĠĠĠĠĠĠĠĠĠĠĠĠĠĠĠ": 4971,
      "BigInteger": 4972,
      "IME": 4973,
      "Ġ54": 4974,
      "lliseconds": 4975,
      "dentity": 4976,
      "--------------------": 4977,
      "Ġpc": 4978,
      "åŁ": 4979,
      "????????????????????????????????": 4980,
      "¢º": 4981,
      "éĻĲ": 4982,
      "Ġge": 4983,
      "ä¿Ĥæķ°": 4984,
      "ãĤĴè¡": 4985,
      "FL": 4986,
      "ĠMACRO": 4987,
      "ĠANS": 4988,
      "ãĥ¼ãĥĸãĥ«": 4989,
      ")**": 4990,
      "abcd": 4991,
      ")).": 4992,
      "æİ¥": 4993,
      "ĠPrime": 4994,
      "ĠSQ": 4995,
      "<<\",\"<<": 4996,
      "ãĥĨãĥ¼ãĥĸãĥ«": 4997,
      "-------------------------------": 4998,
      "åĪĨè§£": 4999,
      "ãĤĴè¨Īç®Ĺ": 5000,
      "Ġ90": 5001,
      "Ġ'+": 5002,
      "abcdefghijklmnopqrstu": 5003,
      ":::": 5004,
      "°ãĤĬ": 5005,
      "pei": 5006,
      "ł¼": 5007,
      "fabs": 5008,
      "éłŃ": 5009,
      "))*": 5010,
      "ref": 5011,
      "¡ä»¶": 5012,
      ".__": 5013,
      "Ġ62": 5014,
      "è²ł": 5015,
      "ãģ¨y": 5016,
      "200001": 5017,
      "Ġumap": 5018,
      "counts": 5019,
      "Ģĥ": 5020,
      "Ġupd": 5021,
      "uffix": 5022,
      "ĠAdd": 5023,
      "ITE": 5024,
      "Ġpdd": 5025,
      "ĊĉĠĠĠĠĠĠĠĠĠĠĠ": 5026,
      "money": 5027,
      "Ġscc": 5028,
      "èĥ": 5029,
      "edList": 5030,
      "dw": 5031,
      "llll": 5032,
      "Ġbanpei": 5033,
      "ĠâĸĪâĸĪ": 5034,
      "107": 5035,
      "ope": 5036,
      "3000": 5037,
      "Ġ++){": 5038,
      ":])": 5039,
      "Order": 5040,
      "olver": 5041,
      "Last": 5042,
      "ĠEQ": 5043,
      "109": 5044,
      "Ġmult": 5045,
      "Ġ23": 5046,
      "Ġ***": 5047,
      "......": 5048,
      "deep": 5049,
      "native": 5050,
      "divisors": 5051,
      "Ġold": 5052,
      "black": 5053,
      "elem": 5054,
      "7777": 5055,
      "5533": 5056,
      "æ³¨": 5057,
      "found": 5058,
      "Ġnames": 5059,
      "æ¨Ļ": 5060,
      "ãģ§ãģĻ": 5061,
      "WH": 5062,
      "ä¿Ŀ": 5063,
      "done": 5064,
      "Ġer": 5065,
      "ACT": 5066,
      "tv": 5067,
      "\",(": 5068,
      "lx": 5069,
      "]%=": 5070,
      "Ġsd": 5071,
      "seen": 5072,
      "ç´¯": 5073,
      "abet": 5074,
      "rror": 5075,
      "igh": 5076,
      "Ġnh": 5077,
      "554": 5078,
      "])/": 5079,
      "before": 5080,
      "negative": 5081,
      "(#__": 5082,
      "åĽ²": 5083,
      "èī": 5084,
      "åĲĪãĤı": 5085,
      "ĠRA": 5086,
      ">>>>": 5087,
      "èĥ½": 5088,
      "Ġminimum": 5089,
      "bun": 5090,
      "ãģ®è·ĿéĽ¢": 5091,
      "Ġdr": 5092,
      "StringTokenizer": 5093,
      "ithub": 5094,
      "çĻ": 5095,
      "ĠMX": 5096,
      "Ġca": 5097,
      "Ġte": 5098,
      "Fast": 5099,
      "_/": 5100,
      "[--": 5101,
      "ntry": 5102,
      "Ġseed": 5103,
      "Ġ#__": 5104,
      "Ġcond": 5105,
      "dna": 5106,
      "çĶŁ": 5107,
      "rees": 5108,
      "IST": 5109,
      "???????????Â": 5110,
      "Query": 5111,
      "Ġnormal": 5112,
      "ãĤª": 5113,
      "è¨Ī": 5114,
      "Ġmii": 5115,
      "ĠĠĠĠĠĠĠĠĠĠĠĠĠĠĠĠĠĠĠĠĠ": 5116,
      "ĊĠĠĠĠĠĠĠĠĠĠĠĠĠĠĠĠĠĠĠĠĠĠĠĠĠĠĠĠĠĠĠĠĠĠĠĠĠĠĠ": 5117,
      "ĠCom": 5118,
      "Ġimag": 5119,
      "ãĥĻ": 5120,
      "Ġro": 5121,
      "SQ": 5122,
      "ãģĹãģ¦ãģĦãĤĭ": 5123,
      "Ġ80": 5124,
      "ariable": 5125,
      "Ġtl": 5126,
      "cut": 5127,
      "Ġref": 5128,
      "ĠCombination": 5129,
      "Operator": 5130,
      "Par": 5131,
      "GRATIO": 5132,
      "phabet": 5133,
      ")->": 5134,
      "RAY": 5135,
      "remain": 5136,
      "5737": 5137,
      "ssse": 5138,
      "Ġini": 5139,
      "Ġturn": 5140,
      "ï¼¿": 5141,
      "product": 5142,
      "Scan": 5143,
      "OUNT": 5144,
      "Ġvvc": 5145,
      "Second": 5146,
      "ĠContainer": 5147,
      "ĠCLOCKS": 5148,
      "=*": 5149,
      "ãģ«å¤ī": 5150,
      "899": 5151,
      "ĠModulus": 5152,
      "ĠBigInteger": 5153,
      "Ġatan": 5154,
      "åŃĺåľ¨": 5155,
      "abcdefghijklmnopqrstuvw": 5156,
      "55555555": 5157,
      "ARC": 5158,
      "ãģ¨ãģĻãĤĭ": 5159,
      ":%": 5160,
      "_);": 5161,
      "102": 5162,
      "Ġinteger": 5163,
      "ĊĠĠĠĠĊĠĠĠĠĊĠĠĠ": 5164,
      "ĠĠĠĊĠĠĠ": 5165,
      "mmx": 5166,
      "ç´į": 5167,
      "éĿ": 5168,
      "<<\"]": 5169,
      "Ġblue": 5170,
      "ãĥĸ": 5171,
      "åĲĪãĤıãģĽ": 5172,
      "ĦåĽ²": 5173,
      "Ġcenter": 5174,
      "Ġangle": 5175,
      "github": 5176,
      "Vertex": 5177,
      "Â¶Â¶": 5178,
      "ãģĵãĤĮ": 5179,
      "ĠFirst": 5180,
      "ãĥĵ": 5181,
      "Equal": 5182,
      "ĠĠĊĠ": 5183,
      "Ġcd": 5184,
      "Sh": 5185,
      "],&": 5186,
      "price": 5187,
      "intersect": 5188,
      "Ġncr": 5189,
      "¹°ãĤĬ": 5190,
      "Ġ=>": 5191,
      "ODO": 5192,
      "Multi": 5193,
      "Ġla": 5194,
      "5537": 5195,
      "éģ¸": 5196,
      ".......": 5197,
      "ä½ĻãĤĬ": 5198,
      "strib": 5199,
      "ĠĠĠĠĠĠĠĠĠĠĠĠĠĠĠĠĠĠ": 5200,
      "ĠnextLine": 5201,
      "ãģ«å¯¾": 5202,
      "ĠPos": 5203,
      "ä¸į": 5204,
      "aba": 5205,
      "ãĤĢ": 5206,
      "&-": 5207,
      "MACRO": 5208,
      "ĠÐ": 5209,
      "tial": 5210,
      "ãģ®è¦ª": 5211,
      "tune": 5212,
      "abm": 5213,
      "å·®": 5214,
      "Ġorig": 5215,
      "ĠĊĠĠĊĠĠĠ": 5216,
      "å¼ķæķ°": 5217,
      "Coder": 5218,
      "bri": 5219,
      "uffle": 5220,
      "tm": 5221,
      "ãģ©ãģĨ": 5222,
      "ĠINFLL": 5223,
      "éĸĭ": 5224,
      "ĠLD": 5225,
      "Ġrnd": 5226,
      "753": 5227,
      "ogram": 5228,
      "Ġ&,": 5229,
      "cache": 5230,
      "ĠnCk": 5231,
      "äº¤": 5232,
      "Ġnb": 5233,
      "ï¼İ": 5234,
      "Ġretval": 5235,
      "exception": 5236,
      "Ġvalid": 5237,
      "éļİ": 5238,
      "ĠFORE": 5239,
      "Circle": 5240,
      "osu": 5241,
      "position": 5242,
      "Ġ`-": 5243,
      "Ġswitch": 5244,
      "ł¼ç´į": 5245,
      "Ġ97": 5246,
      "Ġfactors": 5247,
      "Ġpermutations": 5248,
      "Ġ\"/": 5249,
      "ĠFact": 5250,
      "ĠãĢĢ": 5251,
      "Ġerrprtln": 5252,
      "ĩå®ļ": 5253,
      "ucl": 5254,
      "ĠSP": 5255,
      "Ġ--------------------------------": 5256,
      "<<\"{": 5257,
      "ĠVLL": 5258,
      "ek": 5259,
      "ãĥĳ": 5260,
      "Ġdummy": 5261,
      "ä»ĺ": 5262,
      "ĊĠĠĊĠĠĠ": 5263,
      "1232": 5264,
      "Ġsolution": 5265,
      "Ġwhite": 5266,
      "ĠState": 5267,
      "CE": 5268,
      "ĠSegTree": 5269,
      "æ³¨æĦı": 5270,
      "åħĪéłŃ": 5271,
      "ĠPll": 5272,
      "æŃ£": 5273,
      "Odd": 5274,
      "Ġhave": 5275,
      "ãģĦãģı": 5276,
      ");}}": 5277,
      "View": 5278,
      "Ġpas": 5279,
      "vari": 5280,
      "ĊĠĠĠĠĉĉĉ": 5281,
      "ami": 5282,
      "æ¸Ī": 5283,
      "ku": 5284,
      "889": 5285,
      "ini": 5286,
      "Ġequal": 5287,
      "ious": 5288,
      "Ġfix": 5289,
      "ãģķãĤĮãģŁ": 5290,
      "ĠParent": 5291,
      "shift": 5292,
      "Ġ[(": 5293,
      "Ġmpow": 5294,
      "56789": 5295,
      "ĊĉĉĉĉĊĉĉĉ": 5296,
      "brief": 5297,
      "Ġvt": 5298,
      "ara": 5299,
      "BL": 5300,
      "[]=": 5301,
      "win": 5302,
      "Ġpopcount": 5303,
      "Ġifac": 5304,
      "ody": 5305,
      "umn": 5306,
      "è£": 5307,
      "Ġ..": 5308,
      "inator": 5309,
      "Ġcomparator": 5310,
      ";;)": 5311,
      "Ġdivide": 5312,
      "æ®": 5313,
      "ĠRest": 5314,
      "ãĤį": 5315,
      "ĠLS": 5316,
      "ãģ«ãģ¤ãģĦãģ¦": 5317,
      "Ġ89": 5318,
      "Ġcounts": 5319,
      "Ġglobal": 5320,
      "Wh": 5321,
      "9999999": 5322,
      "uni": 5323,
      "ãĥĥãĥī": 5324,
      "aaa": 5325,
      "ãģĿãĤĮ": 5326,
      "()];": 5327,
      "fst": 5328,
      "ĠSE": 5329,
      "9999999999": 5330,
      "<<\"}": 5331,
      "=%": 5332,
      "let": 5333,
      "######": 5334,
      "¶³": 5335,
      "ĠData": 5336,
      "Ġreach": 5337,
      "Entry": 5338,
      "(\"#": 5339,
      "ities": 5340,
      "ĠValue": 5341,
      "uffer": 5342,
      "1222": 5343,
      "Ġcn": 5344,
      "NGE": 5345,
      "5577": 5346,
      "Ġxxx": 5347,
      "Ġchrono": 5348,
      "zzzz": 5349,
      "HashMap": 5350,
      "ĩéłĨ": 5351,
      "æĽ¸": 5352,
      ")][": 5353,
      "])*(": 5354,
      "ĠĠĠĠĠĠĠĠĠĠĠĠĠĠĠĠĠĠĠĠĠĠĠ": 5355,
      "335": 5356,
      "Ġprice": 5357,
      "å¤ļ": 5358,
      "prod": 5359,
      "llong": 5360,
      "888": 5361,
      "Ġ'-'": 5362,
      "ä½¿çĶ¨": 5363,
      "Zero": 5364,
      "Ġbox": 5365,
      "ĠDice": 5366,
      "Ġ\"\")": 5367,
      "oose": 5368,
      "bx": 5369,
      "pd": 5370,
      "ĠUnion": 5371,
      "han": 5372,
      "ĠTask": 5373,
      "ign": 5374,
      "ĠHashSet": 5375,
      "need": 5376,
      "insuu": 5377,
      "ç¢º": 5378,
      "Ġ100010": 5379,
      "chk": 5380,
      "121": 5381,
      "Ġ\"=": 5382,
      "Ġmaxv": 5383,
      "Ġrotate": 5384,
      "clz": 5385,
      "è»": 5386,
      "vy": 5387,
      "Arg": 5388,
      "Ġxor": 5389,
      "æľĢåĪĿ": 5390,
      "Even": 5391,
      "536": 5392,
      "undef": 5393,
      "Ġ'{": 5394,
      "children": 5395,
      "abcdefghijklmnopqrstuvwxyz": 5396,
      "dr": 5397,
      "åĪĩãĤĬ": 5398,
      "Ġvert": 5399,
      "From": 5400,
      "'s": 5401,
      "Ġlines": 5402,
      "ĠMAT": 5403,
      "inkedList": 5404,
      "RI": 5405,
      "Main": 5406,
      "Comparator": 5407,
      "ĠOutputStream": 5408,
      "Ġbad": 5409,
      "WISE": 5410,
      "æľĢå°ıåĢ¤": 5411,
      "sequence": 5412,
      "Ġ---": 5413,
      "htt": 5414,
      "ãģķãĤĮãĤĭ": 5415,
      "501": 5416,
      "Inter": 5417,
      "ical": 5418,
      "lll": 5419,
      "EM": 5420,
      "ĠEOF": 5421,
      "roo": 5422,
      "integral": 5423,
      "fn": 5424,
      "TS": 5425,
      "æĮģ": 5426,
      "ĠTODO": 5427,
      "ãĤ¯ãĥŃ": 5428,
      "ĠVP": 5429,
      "ãģĵãģ®": 5430,
      "Ġ'#';": 5431,
      ",*": 5432,
      "ãģ®åĢĭæķ°": 5433,
      "GG": 5434,
      "ç´łåĽłæķ°åĪĨè§£": 5435,
      "center": 5436,
      "ãĥ¼ãĤ¹": 5437,
      "Ġfp": 5438,
      "Ġclr": 5439,
      "Error": 5440,
      "Ġsr": 5441,
      "Ġlnt": 5442,
      "getClass": 5443,
      "ĠisSpaceChar": 5444,
      "ãģªãģ©": 5445,
      "half": 5446,
      "<<\"(\"<<": 5447,
      "120": 5448,
      "white": 5449,
      "Âĥ": 5450,
      "åł´åĲĪãģ¯": 5451,
      "SU": 5452,
      "])))": 5453,
      "ãģ§åī²ãģ£ãģŁ": 5454,
      "ASE": 5455,
      "````````````````````````": 5456,
      "ä¾ĭ": 5457,
      "Ġsizes": 5458,
      "ingo": 5459,
      "Ġmaxx": 5460,
      "ĠLP": 5461,
      "ãģ£ãģŁãĤī": 5462,
      "ita": 5463,
      "éļİä¹Ĺ": 5464,
      "éĥ¨åĪĨ": 5465,
      "unused": 5466,
      "<<((": 5467,
      "Ġ2020": 5468,
      "Ġdigits": 5469,
      "ĠEnd": 5470,
      "[&](": 5471,
      "127": 5472,
      "ATE": 5473,
      "Ġ[\"": 5474,
      "ĠEve": 5475,
      "Ġcompress": 5476,
      "sive": 5477,
      "Ġempty": 5478,
      "ĠĠĠĠĠĠĠĠĠĠĠĠĠĠĠĠĠĠĠĠĠĠ": 5479,
      "ĠSH": 5480,
      "[*": 5481,
      "çµĦãģ¿": 5482,
      "ãĥ¥ãĥ¼": 5483,
      "Ġsums": 5484,
      "ãĥŀãĤ¯ãĥŃ": 5485,
      "comparator": 5486,
      "Start": 5487,
      "ç¾": 5488,
      "Ġvpi": 5489,
      "122": 5490,
      "\"):": 5491,
      "rv": 5492,
      "Iter": 5493,
      "getter": 5494,
      "raits": 5495,
      "WWWW": 5496,
      "Ġ&(": 5497,
      "Ġ}*/": 5498,
      "sn": 5499,
      "AK": 5500,
      "å±ŀãģĻãĤĭ": 5501,
      "COM": 5502,
      "buflen": 5503,
      "https": 5504,
      "ĠruiC": 5505,
      "TE": 5506,
      "ĠnextIntArray": 5507,
      "RL": 5508,
      "cycle": 5509,
      "enum": 5510,
      ")<=(": 5511,
      "Ġ*)": 5512,
      "Ġcomma": 5513,
      "orig": 5514,
      "By": 5515,
      "åīĬ": 5516,
      "switch": 5517,
      "henes": 5518,
      "CKWISE": 5519,
      "osthenes": 5520,
      "Ġstop": 5521,
      "city": 5522,
      "ãĥģ": 5523,
      "¶æķ°": 5524,
      "reference": 5525,
      "LM": 5526,
      "Ġkn": 5527,
      "()<<": 5528,
      "emo": 5529,
      "NIL": 5530,
      "301": 5531,
      "ç«¯": 5532,
      "Ġdt": 5533,
      "Ġcut": 5534,
      "%$": 5535,
      "']++;": 5536,
      "ĠPro": 5537,
      "Ġstk": 5538,
      "HT": 5539,
      "/*@": 5540,
      "ĠBinary": 5541,
      "nextDouble": 5542,
      "abb": 5543,
      "ster": 5544,
      "Ġkk": 5545,
      "fx": 5546,
      "pon": 5547,
      "âķ¬âķ¬âķ¬": 5548,
      "ç³": 5549,
      "ĠVEC": 5550,
      "plusplus": 5551,
      "Ġnegative": 5552,
      "isPrime": 5553,
      "Ġgx": 5554,
      ",%": 5555,
      "erated": 5556,
      "()[": 5557,
      "ĠDFS": 5558,
      "Ġta": 5559,
      "321": 5560,
      "600": 5561,
      "ãĤ°ãĥ«ãĥ¼ãĥĹ": 5562,
      "çµĮ": 5563,
      "5377": 5564,
      "14159265358979323846264338327950": 5565,
      "qs": 5566,
      "Ġprtln": 5567,
      "339": 5568,
      "iform": 5569,
      "!!!!!!!!!!!!!!!!": 5570,
      "ml": 5571,
      "cplusplus": 5572,
      "ĊĉĉĉĊĉ": 5573,
      "Ġdelta": 5574,
      "ĠcompareTo": 5575,
      "roups": 5576,
      "ĊĉĊĉĊ": 5577,
      "ustom": 5578,
      "å¥": 5579,
      "Ġelapsed": 5580,
      "dq": 5581,
      "Ġris": 5582,
      "Ġduration": 5583,
      "ĊĠĠĠĠĠĠĠĠĠĠĠĠĠĠĠĠĠĠĠĠĠĠĠĠĠĠĠĠĠĠĠĠĠĠĠĠĠĠĠĠĠĠĠĠĉ": 5584,
      "Buffer": 5585,
      "'''": 5586,
      "ĠĠĊĠĠĠĠĠĠĠ": 5587,
      "ĊĠĠĠĠĠĊĠĠĠ": 5588,
      "mk": 5589,
      "abel": 5590,
      "ĠCLR": 5591,
      "Ġshortest": 5592,
      "Ġpivot": 5593,
      "Ġ0000": 5594,
      "æĮĻ": 5595,
      "éĻįéłĨ": 5596,
      "zeros": 5597,
      "æīĢ": 5598,
      "çµĦãģ¿åĲĪãĤıãģĽ": 5599,
      "Ġwhen": 5600,
      "lam": 5601,
      "ãģŁãģĦ": 5602,
      "way": 5603,
      "ãĤĴä½ľãĤĭ": 5604,
      "Ġ\"{\"": 5605,
      "Supp": 5606,
      "ushi": 5607,
      "Ġç´łæķ°": 5608,
      "ĠINPUT": 5609,
      "Base": 5610,
      "]+(": 5611,
      "dh": 5612,
      "çı¾": 5613,
      "Ġclose": 5614,
      "ĠFunction": 5615,
      "10000000": 5616,
      "Ġreturns": 5617,
      "Ġlr": 5618,
      "Pi": 5619,
      "protected": 5620,
      "Ġcycle": 5621,
      "æ¯": 5622,
      "Ġ400": 5623,
      "ãĤ³ãĤ¹ãĥĪ": 5624,
      "è¿½åĬł": 5625,
      "ĠINFL": 5626,
      "POW": 5627,
      "Def": 5628,
      "ĠÂ": 5629,
      "pe": 5630,
      "Yay": 5631,
      "Ġround": 5632,
      "conn": 5633,
      "TYPE": 5634,
      "ãĤĮãģ¦": 5635,
      "allel": 5636,
      "fd": 5637,
      "xxxxxxxxxxxxxxxxxxxxxxxxxxxxxxxx": 5638,
      "00001": 5639,
      "Ġmaze": 5640,
      "Heap": 5641,
      "ĠEXIST": 5642,
      "ãĤ¯ãĥĪ": 5643,
      "tem": 5644,
      "ĠCost": 5645,
      "Warning": 5646,
      "Ġprefix": 5647,
      "cat": 5648,
      "getline": 5649,
      "Ġ47": 5650,
      "514": 5651,
      "ĠFastReader": 5652,
      "æľª": 5653,
      "Ġepsdou": 5654,
      "646": 5655,
      "arry": 5656,
      "Ġap": 5657,
      "typeinfo": 5658,
      "Ġĉĉ": 5659,
      "Ġbt": 5660,
      "3577": 5661,
      "////////////////////////////////////////////////": 5662,
      "equal": 5663,
      "æŀľ": 5664,
      "Ġllint": 5665,
      "Ġentry": 5666,
      "Ġqs": 5667,
      "NY": 5668,
      "reader": 5669,
      "ors": 5670,
      "Ġchecked": 5671,
      "åĪĹæĮĻ": 5672,
      "Ġev": 5673,
      "Ġpv": 5674,
      "tract": 5675,
      "åķıé¡Į": 5676,
      "ãģ§ãģªãģĦ": 5677,
      "Ġwt": 5678,
      "æ§ĭ": 5679,
      "Ġmyp": 5680,
      "201": 5681,
      "ga": 5682,
      "ÂĤÂ": 5683,
      "CL": 5684,
      "Ġåħ¥åĬĽ": 5685,
      "ãĤĴæĮģ": 5686,
      "Ġpred": 5687,
      "ãģ¹ãĤĭ": 5688,
      "Ġmaximum": 5689,
      ":.": 5690,
      "ĠAt": 5691,
      "å¢": 5692,
      "Ġinvfact": 5693,
      "_),": 5694,
      "Lf": 5695,
      "ĠREV": 5696,
      "Ġshift": 5697,
      "Ġdeep": 5698,
      "ãĥķãĤ": 5699,
      "å¸°": 5700,
      "åīĬéĻ¤": 5701,
      "<<\"[": 5702,
      "Ġlca": 5703,
      "Ġ200005": 5704,
      "<<\"-": 5705,
      "Ġdh": 5706,
      "åįĺ": 5707,
      "large": 5708,
      "//(": 5709,
      "])]": 5710,
      "Ġfn": 5711,
      "ULO": 5712,
      "\"[": 5713,
      "))-": 5714,
      "ĠPL": 5715,
      "(~": 5716,
      "bling": 5717,
      "çī": 5718,
      "]).": 5719,
      "343": 5720,
      "lv": 5721,
      "1011": 5722,
      "**/": 5723,
      "Ġtem": 5724,
      "ancestor": 5725,
      "Ġrepd": 5726,
      "stribution": 5727,
      "Ġgr": 5728,
      "=~": 5729,
      "Edges": 5730,
      "Ġ200000": 5731,
      ")!=(": 5732,
      "Ġitems": 5733,
      "æºĸ": 5734,
      "ample": 5735,
      "Ġãģ«": 5736,
      "ational": 5737,
      "<<\":\"<<": 5738,
      "nm": 5739,
      "ĠLONG": 5740,
      "Ġafter": 5741,
      "Ġdenom": 5742,
      "HPP": 5743,
      "ĠFILL": 5744,
      "Ġcor": 5745,
      "initializer": 5746,
      "Ġexplicit": 5747,
      "theta": 5748,
      "103": 5749,
      "»åĭķ": 5750,
      "ĠREPS": 5751,
      "Ġfd": 5752,
      "Dice": 5753,
      "ĠRSORT": 5754,
      "ãģ³": 5755,
      "ctz": 5756,
      "Ġva": 5757,
      "))){": 5758,
      "Ġvvd": 5759,
      "ãģ»": 5760,
      "ĠNUM": 5761,
      "VLL": 5762,
      "ĠOp": 5763,
      "ãģ®éłĤçĤ¹": 5764,
      "Get": 5765,
      "ĠAC": 5766,
      "Ġhs": 5767,
      "Ġisprime": 5768,
      "]->": 5769,
      "autoFlush": 5770,
      "Ġãģ¯": 5771,
      "Ġ5000": 5772,
      "ĊĠĠĠĠĠĠĠĠĠĠĠĠĠĠĠĠĠĠĠĠĠĠĠĠĠĠĠĠĠĠĠĠĠĠĠĠĠĠĠĠ": 5773,
      "fff": 5774,
      "ansform": 5775,
      "Ġgetline": 5776,
      ");++(": 5777,
      "blue": 5778,
      "âķĲâķ": 5779,
      "Ġui": 5780,
      "road": 5781,
      "EOF": 5782,
      "ãģĽãĤĭ": 5783,
      "Ġmed": 5784,
      "ï½°": 5785,
      "Ġlc": 5786,
      "];//": 5787,
      "degree": 5788,
      "extend": 5789,
      "Ġnj": 5790,
      "Bl": 5791,
      "acro": 5792,
      "3222": 5793,
      "·¦": 5794,
      "Ġsf": 5795,
      "Ġ%.": 5796,
      "ĊĊĊĉ": 5797,
      "Ġistringstream": 5798,
      "ĠSize": 5799,
      "ĢãģŁ": 5800,
      "åīįåĩ¦çĲĨ": 5801,
      "ĠAR": 5802,
      "99999999999": 5803,
      "çĶŁæĪĲ": 5804,
      "Ġ34": 5805,
      "tes": 5806,
      "************************": 5807,
      "Ġproj": 5808,
      "å½¢": 5809,
      "MI": 5810,
      "Ġdecl": 5811,
      "hole": 5812,
      "kind": 5813,
      "VAR": 5814,
      "ãĤŃãĥ¥ãĥ¼": 5815,
      "179": 5816,
      "????Â": 5817,
      "Ġrepv": 5818,
      "aab": 5819,
      "tw": 5820,
      "Ġpairs": 5821,
      "Check": 5822,
      "Ġ49": 5823,
      "ãĥĬ": 5824,
      "âĸĮ": 5825,
      "brary": 5826,
      "DI": 5827,
      "heappop": 5828,
      "ĊĠĠĠĠĠĠĠĠĠĠĠĠĊĠĠĠĠĠĠĠ": 5829,
      "uzz": 5830,
      "ĠPii": 5831,
      ")].": 5832,
      "olling": 5833,
      "deq": 5834,
      "ãģ¶": 5835,
      "/****": 5836,
      "ĠReal": 5837,
      "Ġxi": 5838,
      "MQ": 5839,
      "olower": 5840,
      "td": 5841,
      "INIT": 5842,
      "xp": 5843,
      "MMM": 5844,
      "ĠĊĉĉĉ": 5845,
      "unit": 5846,
      "æľ¬": 5847,
      "ãģ«ãģ¯": 5848,
      "¤ľ": 5849,
      "ãģªãģ®ãģ§": 5850,
      "Ġlld": 5851,
      "169": 5852,
      "Ġ:=": 5853,
      "perm": 5854,
      "Ġter": 5855,
      "ï¿½ï¿½ï¿½": 5856,
      "Ġ163": 5857,
      "Ġ61": 5858,
      "ĠTR": 5859,
      "Ġ'.';": 5860,
      "ĠFIX": 5861,
      "æĿ¡ä»¶": 5862,
      "Ġcards": 5863,
      "æł¹": 5864,
      "ones": 5865,
      "Ġoperation": 5866,
      "Ġmodnum": 5867,
      "nCr": 5868,
      "ãĢĮ": 5869,
      "containsKey": 5870,
      "Ġran": 5871,
      "ç¸": 5872,
      "Ġwas": 5873,
      "åĽŀæķ°": 5874,
      "ule": 5875,
      "ĊĠĠĠĠĠĠĠĠĠĠĠĠĠĠĠĠĠĠĠĠĠĠĠĠĠĠĠĠĠĠĠĠĠĠĠ": 5876,
      "dream": 5877,
      "ĊĊĊĊĠĠĠ": 5878,
      "Ġ>&": 5879,
      "hich": 5880,
      "namic": 5881,
      "649": 5882,
      "150": 5883,
      "Not": 5884,
      "ws": 5885,
      "119": 5886,
      "[];": 5887,
      "Ġrc": 5888,
      "ĠCompare": 5889,
      "?(": 5890,
      "ĊĊĊĠĠĠĠĠĠĠ": 5891,
      "Ġdeq": 5892,
      "!!!": 5893,
      "ĠContest": 5894,
      "Ġ63": 5895,
      "mix": 5896,
      "Alice": 5897,
      "189": 5898,
      "00000000000000000000000000000000": 5899,
      "UNCT": 5900,
      "Character": 5901,
      "pref": 5902,
      "à¤": 5903,
      "ãģĴ": 5904,
      "ãĤ¨ãĥ©": 5905,
      "èª¿": 5906,
      "141592653589793": 5907,
      "Ġimos": 5908,
      "Ġrbegin": 5909,
      ")%(": 5910,
      "('-": 5911,
      "Ġâ": 5912,
      "ĊĠĠĊ": 5913,
      "Â¡": 5914,
      "]});": 5915,
      "Ġ_/": 5916,
      "ĠMS": 5917,
      "Ġ'('": 5918,
      "Ġ'*": 5919,
      "ãģĭãģ©ãģĨ": 5920,
      "tar": 5921,
      "Ġmiddle": 5922,
      "ances": 5923,
      "),&(": 5924,
      "])));": 5925,
      "ĠĠĠĠĠĠĠĠĠĠĠĠĠĠĠĠĠĠĠĠĠĠĠĠ": 5926,
      ">>,": 5927,
      "ãģ®ä¸Ń": 5928,
      "eek": 5929,
      "CLOCKS": 5930,
      "Ġcreate": 5931,
      "å°ıæķ°": 5932,
      "ãĤĽ": 5933,
      "])==": 5934,
      "ĠinputStream": 5935,
      "äºĨ": 5936,
      "Ġcr": 5937,
      "ĠSolve": 5938,
      "Ġsegtree": 5939,
      "ĊĊĉĉĉĉ": 5940,
      "Ġwi": 5941,
      "ĠCO": 5942,
      "643": 5943,
      "kazu": 5944,
      "ãģĭãģ©ãģĨãģĭ": 5945,
      "ingle": 5946,
      "ãģ®ãģ¨ãģį": 5947,
      "EQ": 5948,
      "307": 5949,
      "nuke": 5950,
      "ħå": 5951,
      "Ġforbit": 5952,
      "version": 5953,
      "Ġerror": 5954,
      "åĲ«ãģ¾": 5955,
      "åģ´": 5956,
      "Ġdecimal": 5957,
      "ĠUF": 5958,
      "rg": 5959,
      "dev": 5960,
      "ERO": 5961,
      "iseki": 5962,
      "ĠSp": 5963,
      "lnt": 5964,
      "5753": 5965,
      "trim": 5966,
      "]^": 5967,
      "ODE": 5968,
      "Ġ44": 5969,
      "distribution": 5970,
      "âĶģâĶģ": 5971,
      "\"+": 5972,
      "Ġgi": 5973,
      "wwwwwwww": 5974,
      "éķ·ãģķ": 5975,
      "ĠSINT": 5976,
      "Ġresolve": 5977,
      "Ġnone": 5978,
      "Ġ(#": 5979,
      "=_": 5980,
      "aps": 5981,
      "éĢł": 5982,
      "=[[": 5983,
      "ãģĳãĤĮãģ°": 5984,
      "ifact": 5985,
      "Nodes": 5986,
      "ãģ§åī²ãģ£ãģŁä½ĻãĤĬ": 5987,
      "readlines": 5988,
      "modulo": 5989,
      "Ġcandidate": 5990,
      "åĩºãģĻ": 5991,
      "Ġpat": 5992,
      "================================================================": 5993,
      "ãģ®ãĤµãĤ¤ãĤº": 5994,
      "Ġ{\"": 5995,
      "ĠoutputStream": 5996,
      "-----------": 5997,
      "10001": 5998,
      "ãģ¨ãģªãĤĭ": 5999,
      "odo": 6000,
      "throws": 6001,
      "outputStream": 6002,
      "setlen": 6003,
      "GN": 6004,
      "SA": 6005,
      "çľ": 6006,
      "Cy": 6007,
      "oupper": 6008,
      "ieve": 6009,
      "ĠupperType": 6010,
      "éĢŁ": 6011,
      "éłĨãģ«": 6012,
      "355": 6013,
      "879": 6014,
      "1000001": 6015,
      "Upper": 6016,
      "fir": 6017,
      "Ġ2000000000": 6018,
      "Ġ-----": 6019,
      "Ġ45": 6020,
      "44444444": 6021,
      "ãĥ¼ãĥĲ": 6022,
      "ĠisPrintableChar": 6023,
      ":;": 6024,
      "1233": 6025,
      "è¾¼": 6026,
      "Ġfx": 6027,
      "åĪĨåī²": 6028,
      "ĊĠĠĠĉ": 6029,
      "Ġeq": 6030,
      "stk": 6031,
      "Ġmust": 6032,
      "bad": 6033,
      "Ġ>,": 6034,
      "141592653": 6035,
      "tb": 6036,
      "?-": 6037,
      "VERSE": 6038,
      "133": 6039,
      "Ġ[&": 6040,
      "erence": 6041,
      "ãĤĴæº": 6042,
      "Ġpe": 6043,
      "pli": 6044,
      "åĪĿæľŁåĢ¤": 6045,
      "LS": 6046,
      "ĊĉĉĠĠĠĠĠĠĠ": 6047,
      "157": 6048,
      "'t": 6049,
      "milliseconds": 6050,
      "Ġav": 6051,
      "Ġblen": 6052,
      "OJ": 6053,
      "Ġchildren": 6054,
      "valarray": 6055,
      "trib": 6056,
      "579": 6057,
      "atan": 6058,
      "ould": 6059,
      "aaaaaaaaaaaaaaaaaaaaaaaaaaaaaaaaaaaaaaaaaaaaaaaaaaaaaaaaaaaaaaaaaaaaaaaaaaaaaaaaaaaaaaaaaaaaaaaaaaaaaaaaaaaaaaaaaaaaaaaaaaaaaaaa": 6060,
      "LOCAL": 6061,
      "įå¸°": 6062,
      "LA": 6063,
      "112": 6064,
      "129": 6065,
      "Info": 6066,
      "ĊĊĊĊĊĊ": 6067,
      "Suppress": 6068,
      "SuppressWarning": 6069,
      "SuppressWarnings": 6070,
      "ĠäºĮéłħä¿Ĥæķ°": 6071,
      "Ġregister": 6072,
      "ĠâĸĪâĸĪâĸĪâĸĪ": 6073,
      "isp": 6074,
      "ĠMul": 6075,
      "ĠCo": 6076,
      "Binary": 6077,
      "ĠĠĠĠĠĠĠĠĠĠĠĠĠĠĠĠĠĠĠĠĠĠĠĠĠĠ": 6078,
      "ç¶": 6079,
      "ãģ¤ãģ®": 6080,
      "segtree": 6081,
      "zip": 6082,
      "Ġ}};": 6083,
      "8528": 6084,
      "139": 6085,
      "]]-": 6086,
      "æľī": 6087,
      "ĠnumChars": 6088,
      "ESS": 6089,
      "ĉĉĉĉĉĉĉĉĉĉĉĉĉĉĉĉ": 6090,
      "()%": 6091,
      "Ġ87": 6092,
      "ãģ®åĴĮ": 6093,
      "Ġele": 6094,
      "xc": 6095,
      "poly": 6096,
      "sep": 6097,
      "exist": 6098,
      "},{{": 6099,
      "lms": 6100,
      "sd": 6101,
      "Ġ'\\\"": 6102,
      "Ġjj": 6103,
      "1122": 6104,
      "3232": 6105,
      "zi": 6106,
      "============": 6107,
      "ĸ¤": 6108,
      "ĠnextChar": 6109,
      "hp": 6110,
      "ðŁĸ¤": 6111,
      "Cap": 6112,
      "è¿ĶãģĻ": 6113,
      "æĸ¹åĲĳ": 6114,
      "Ġoo": 6115,
      "âĸĲ": 6116,
      "ĠGET": 6117,
      "Ġroo": 6118,
      "829": 6119,
      "ãĤĴæºĢãģŁ": 6120,
      "ĠFORD": 6121,
      "3533": 6122,
      "347": 6123,
      "ifstream": 6124,
      "ĊĠĠĠĠĠĠĠĠĠĠĠĠĠĠĠĠĠĠĠĠĠĠĠĠĠĠĠĠĠĠĠĠĠĠĠĠĠĠĠĠĠĠĠĠĠĠĠĠ": 6125,
      "repeat": 6126,
      "Ġ10000000000000000": 6127,
      "()<": 6128,
      "((*": 6129,
      "osuu": 6130,
      "fun": 6131,
      "modpow": 6132,
      "Ġ(;;)": 6133,
      "ridge": 6134,
      "Ġform": 6135,
      "Ġdefined": 6136,
      "Ġutil": 6137,
      "Ġ<<\",": 6138,
      "Ġtake": 6139,
      "499": 6140,
      "Ġaaa": 6141,
      "RAND": 6142,
      "<>(": 6143,
      "ĠSHOW": 6144,
      "ĠisP": 6145,
      "cards": 6146,
      "Ġdim": 6147,
      "^^^^^^^^": 6148,
      "ĠMAP": 6149,
      "ĠĠĊ": 6150,
      "Ġrend": 6151,
      "Debug": 6152,
      "upd": 6153,
      "âĸĴâĸĴâĸĴâĸĴ": 6154,
      "ãģªãģı": 6155,
      "(_,": 6156,
      ";)": 6157,
      "maxv": 6158,
      "149": 6159,
      "Output": 6160,
      "209": 6161,
      "Ġ51": 6162,
      "Ġ300": 6163,
      "offset": 6164,
      "water": 6165,
      "ç¬": 6166,
      "ãĥ¼ãĥķ": 6167,
      "ĠTH": 6168,
      "Ġ{{": 6169,
      "117": 6170,
      "www": 6171,
      "Ġusize": 6172,
      "---------": 6173,
      "Ġ'{';": 6174,
      "Ġfunctions": 6175,
      "fy": 6176,
      "2344": 6177,
      "vals": 6178,
      "Ġ````": 6179,
      "Ġ35": 6180,
      "æĢ": 6181,
      "âĨĵâĨĵâĨĵâĨĵ": 6182,
      "Lower": 6183,
      "RST": 6184,
      "Ġpowmod": 6185,
      "????????????????????????": 6186,
      "Ġjoin": 6187,
      "ĠSolver": 6188,
      "Ġsrep": 6189,
      "187": 6190,
      "Ġ&_": 6191,
      "Ġllin": 6192,
      "ants": 6193,
      "fmt": 6194,
      "_-": 6195,
      "++++++++++++++++": 6196,
      "Ġfactinv": 6197,
      "fc": 6198,
      "Ġ16384": 6199,
      "ia": 6200,
      ")++;": 6201,
      "Ġvx": 6202,
      "ncr": 6203,
      "\\\\\\\\\\\\\\\\\\\\\\\\\\\\\\\\\\\\\\\\\\\\\\\\\\\\\\\\\\\\\\\\": 6204,
      "Ġul": 6205,
      "END": 6206,
      "ç¾©": 6207,
      "ĠCap": 6208,
      "bg": 6209,
      "Ġrequi": 6210,
      "âłĦ": 6211,
      "inputStream": 6212,
      "iss": 6213,
      "ĠYN": 6214,
      "è¼": 6215,
      "Ġ\"#\"": 6216,
      "alloc": 6217,
      "ĠDEB": 6218,
      "numChars": 6219,
      "tain": 6220,
      "Ġmultiply": 6221,
      "5755": 6222,
      "Ġ''": 6223,
      "3537": 6224,
      "çĽ´ç·ļ": 6225,
      "ç©º": 6226,
      "AIN": 6227,
      "]<<'": 6228,
      "åĢ¤ãĤĴ": 6229,
      "Ġamari": 6230,
      "ĠtoInt": 6231,
      "Ġkeys": 6232,
      ",)(__": 6233,
      "Ġws": 6234,
      "ĠMODULO": 6235,
      "çµĲæŀľ": 6236,
      "Ġpli": 6237,
      "()*": 6238,
      "ç³»": 6239,
      "Ġ278528": 6240,
      "Ġ59": 6241,
      "()->": 6242,
      "White": 6243,
      "setw": 6244,
      "asc": 6245,
      "Ġfib": 6246,
      "Ġctoi": 6247,
      "Ġspace": 6248,
      "Child": 6249,
      "ĠAs": 6250,
      "mit": 6251,
      "Ġcb": 6252,
      "Ġamax": 6253,
      "ĉĉĉĉĉ": 6254,
      "===": 6255,
      "|=": 6256,
      "ĠIf": 6257,
      "ãĢĢãĢĢãĢĢ": 6258,
      "ðŁĸ¤ðŁĸ¤": 6259,
      "xa": 6260,
      "è¿ĶãģĹ": 6261,
      "noexcept": 6262,
      "ĠFill": 6263,
      "ï½¶": 6264,
      "ãģĹãģĦ": 6265,
      "ĠSS": 6266,
      "Ġhelper": 6267,
      "ãģ®åŀĭ": 6268,
      "Ġrnk": 6269,
      "Ľ´æĸ°": 6270,
      "pf": 6271,
      "ĠYour": 6272,
      "****************************************": 6273,
      "ÂłÂł": 6274,
      "eval": 6275,
      "<<\"=\"<<": 6276,
      "9999999999999999": 6277,
      "entr": 6278,
      "å¹": 6279,
      "543": 6280,
      "Ġroad": 6281,
      "eries": 6282,
      "ĠMEM": 6283,
      ">*": 6284,
      "Ġview": 6285,
      "ilt": 6286,
      "EEEE": 6287,
      "bt": 6288,
      "ĊĠĠĠĠĠĠĠĠĠĠĠĠĠĠĠĠĠĠĠĠĠĠ": 6289,
      "UU": 6290,
      "egal": 6291,
      "ĠĊĊ": 6292,
      "ote": 6293,
      "ĠMM": 6294,
      "505": 6295,
      "cores": 6296,
      "vvvv": 6297,
      "èĩªåĪĨ": 6298,
      "Grid": 6299,
      "tribute": 6300,
      "ĊĠĠĠĊĠĠĠ": 6301,
      "Ġ&&...": 6302,
      "tic": 6303,
      "§æ¨Ļ": 6304,
      "ĠTraits": 6305,
      "Ġoff": 6306,
      "çµĮè·¯": 6307,
      "Ġprep": 6308,
      "ĠHe": 6309,
      "ĠTime": 6310,
      "Ġ$": 6311,
      "ãģ«ãģĤãĤĭ": 6312,
      "(')": 6313,
      "ĊĠĠĠĠĠĠĠĠĠĠĠĠĠĠĠĠĠĠĠĠĠ": 6314,
      "scanner": 6315,
      "ĊĠĊĉ": 6316,
      "Ġxrange": 6317,
      "Neg": 6318,
      "FACT": 6319,
      "ck": 6320,
      "Ġsnd": 6321,
      "ãĥĩãĥĲ": 6322,
      "llo": 6323,
      "combinations": 6324,
      "round": 6325,
      "ĠAbel": 6326,
      "Ġisdigit": 6327,
      "Ġ100001": 6328,
      "wr": 6329,
      "#######": 6330,
      "Ġ70": 6331,
      "My": 6332,
      "pv": 6333,
      "ĠEdges": 6334,
      "det": 6335,
      "UNCTION": 6336,
      "ãĤĮãģŁ": 6337,
      "åĲį": 6338,
      "ãĥŀãĥ¼": 6339,
      "Same": 6340,
      "ĠTT": 6341,
      "Ġrepss": 6342,
      "yi": 6343,
      ")||(": 6344,
      ")],": 6345,
      "éĸī": 6346,
      "ãĤ¯ãĥĪãĥ«": 6347,
      "Com": 6348,
      "ĠOutputWriter": 6349,
      "Ġmset": 6350,
      "fb": 6351,
      "åĪ©": 6352,
      "ĠlowerBound": 6353,
      "Polygon": 6354,
      "è¡¨ç¤º": 6355,
      "........................": 6356,
      "]=='.')": 6357,
      "ãĥł": 6358,
      ";*/": 6359,
      "SET": 6360,
      "Ġwater": 6361,
      "]=\"": 6362,
      "ãģ¹ãģ¦": 6363,
      "ãģ¸ãģ®": 6364,
      "ĠnextLongArray": 6365,
      "ç´¯ç©į": 6366,
      "dc": 6367,
      "Ġ>>>": 6368,
      "KKKK": 6369,
      "åħ¥ãĤĮãĤĭ": 6370,
      "Ġdrep": 6371,
      "INPUT": 6372,
      "ĠPriorityQueue": 6373,
      "Ġdivi": 6374,
      "Ġbeg": 6375,
      "***": 6376,
      "ODER": 6377,
      "Ġgood": 6378,
      "Itr": 6379,
      "ĠlowerType": 6380,
      "byte": 6381,
      "leaf": 6382,
      "Ġ65": 6383,
      "rng": 6384,
      "ãģ«æ": 6385,
      "Ġ\"]:": 6386,
      "ãĥĵãĥĥãĥĪ": 6387,
      "äºº": 6388,
      "factorize": 6389,
      "âķĳ": 6390,
      "ç¶ļ": 6391,
      "çŃī": 6392,
      "ĠDecimal": 6393,
      "--;}": 6394,
      "ROW": 6395,
      "14159265359": 6396,
      "345": 6397,
      "Ġhaba": 6398,
      "223": 6399,
      "ĠModulo": 6400,
      "322": 6401,
      "&&!": 6402,
      "305": 6403,
      "è§Ĵ": 6404,
      "ãĥ¢": 6405,
      "Ġsn": 6406,
      "sis": 6407,
      "sieve": 6408,
      "ãĤ¯ãĥª": 6409,
      "uk": 6410,
      "HM": 6411,
      "Ġiss": 6412,
      "å¿ľ": 6413,
      "Sub": 6414,
      "%%%%%%%%": 6415,
      "Ġbound": 6416,
      "ĠAuthor": 6417,
      "Ġtar": 6418,
      "Ġreadline": 6419,
      "Ġfori": 6420,
      "SC": 6421,
      "Seg": 6422,
      "factors": 6423,
      "ĠRD": 6424,
      "ç¹°ãĤĬ": 6425,
      ")]=": 6426,
      "````````````````````````````````````````": 6427,
      "éļ£": 6428,
      "ĠTh": 6429,
      "\"\"\"\"": 6430,
      "Ġstat": 6431,
      "Ġvpl": 6432,
      ".#.#.#.#": 6433,
      ">(__": 6434,
      "]&": 6435,
      "Ġfir": 6436,
      "uzzle": 6437,
      "820": 6438,
      "Ġroute": 6439,
      "Ġ510000": 6440,
      "ollingHash": 6441,
      "Ġirep": 6442,
      "ãģıãģ£": 6443,
      "Ġ41": 6444,
      "329": 6445,
      "269": 6446,
      "ANS": 6447,
      "VW": 6448,
      "Ġalpha": 6449,
      "èº": 6450,
      "Ġhttp": 6451,
      "ĠAtCoder": 6452,
      "Ġ___": 6453,
      "ãĥļ": 6454,
      "Ġrecur": 6455,
      "CP": 6456,
      "bd": 6457,
      "Ġnodef": 6458,
      "rer": 6459,
      "ĠgetDistance": 6460,
      "izu": 6461,
      "Ġforeach": 6462,
      "è¨Īç®Ĺéĩı": 6463,
      "101010": 6464,
      "ĠLOG": 6465,
      "Ġuniq": 6466,
      "ĠĠĠĠĠĠĠĠĠĠĠĠĠĠĠĠĠĠĠĠĠĠĠĠĠĠĠ": 6467,
      "ãĢĢãĢĢãĢĢãĢĢãĢĢãĢĢãĢĢãĢĢ": 6468,
      "ãĤ¤ãĥĨ": 6469,
      "Ġ'\"": 6470,
      "033": 6471,
      "()).": 6472,
      "dijkstra": 6473,
      "èº«": 6474,
      "Ġprl": 6475,
      "è¶³": 6476,
      "Ġcall": 6477,
      "æ¸Īãģ¿": 6478,
      "ffffffff": 6479,
      "Ġbottom": 6480,
      "Ġrp": 6481,
      "ãĥį": 6482,
      "Ġdup": 6483,
      "Ġsetw": 6484,
      "Ġside": 6485,
      "minv": 6486,
      "âĢ¦": 6487,
      "Ġtb": 6488,
      "åı¯èĥ½": 6489,
      "å¢Ĺ": 6490,
      "ä»£": 6491,
      "ãĥ£": 6492,
      "conv": 6493,
      "Ġcapacity": 6494,
      "llegal": 6495,
      "ency": 6496,
      ")>=(": 6497,
      "]]){": 6498,
      "qi": 6499,
      "ube": 6500,
      "++()": 6501,
      "Ġman": 6502,
      "Ġplace": 6503,
      "ãĥ©ãĤ¹": 6504,
      "HW": 6505,
      "Ġ66": 6506,
      "Ġostr": 6507,
      "¶Ī": 6508,
      "104": 6509,
      "539": 6510,
      "ĊĠĠĠĠĠĠĊĠĠĠ": 6511,
      "Ġ=(": 6512,
      "BD": 6513,
      "tab": 6514,
      "aken": 6515,
      "Ġcity": 6516,
      "TO": 6517,
      "Ġgetid": 6518,
      "den": 6519,
      "ãĥĥãĤ°": 6520,
      "ighb": 6521,
      "âĢĶ": 6522,
      "uler": 6523,
      "show": 6524,
      "//---------------------------------------------------------------": 6525,
      "Ġpossible": 6526,
      "Uti": 6527,
      "bottom": 6528,
      "fore": 6529,
      ":]:": 6530,
      "Ġbun": 6531,
      "llu": 6532,
      "10999": 6533,
      "Ġcomment": 6534,
      "Ġlt": 6535,
      "èĢĥ": 6536,
      "Ġmaxs": 6537,
      "ãĤĪãģĨãģ«": 6538,
      "ãĥĩãĥĲãĥĥãĤ°": 6539,
      "ĠRandom": 6540,
      "med": 6541,
      "ABCD": 6542,
      "Ġrepl": 6543,
      "Ġtw": 6544,
      "Ġwhich": 6545,
      "AY": 6546,
      "':'": 6547,
      "Buf": 6548,
      "xl": 6549,
      "çķ¥": 6550,
      "ameter": 6551,
      "ãģ®æł¹ãĤĴ": 6552,
      "Sun": 6553,
      ")}": 6554,
      "<<\"}\";": 6555,
      "ãģĬãģı": 6556,
      "()][": 6557,
      "Combination": 6558,
      "minn": 6559,
      "curChar": 6560,
      "Ġft": 6561,
      "ared": 6562,
      "ĠLB": 6563,
      "ĠLazy": 6564,
      "Ġapply": 6565,
      "å®Į": 6566,
      "Ġquick": 6567,
      "rl": 6568,
      "<<*": 6569,
      "pas": 6570,
      "è¼ĥ": 6571,
      "Ķè¼ĥ": 6572,
      "è©": 6573,
      "Ġnt": 6574,
      "Ġ```": 6575,
      "ween": 6576,
      "Ġvy": 6577,
      "isu": 6578,
      "ãģĤãĤĬ": 6579,
      "è¤ĩ": 6580,
      "hon": 6581,
      "dsd": 6582,
      "ju": 6583,
      "&)": 6584,
      "RANDOM": 6585,
      "FUNCTION": 6586,
      "Ġmypow": 6587,
      "ãĤĥ": 6588,
      "ĠSe": 6589,
      "ql": 6590,
      "Ġgoto": 6591,
      "ready": 6592,
      "Ġvvs": 6593,
      "YN": 6594,
      "Ġsim": 6595,
      "229": 6596,
      "\")){": 6597,
      "607": 6598,
      "etween": 6599,
      "Ġitemgetter": 6600,
      "ĠII": 6601,
      "Ġkaijo": 6602,
      "ãĥ¬ãĥ¼ãĤ¿": 6603,
      "istmas": 6604,
      "thing": 6605,
      "609": 6606,
      "997": 6607,
      "ĠATC": 6608,
      "ĠCreated": 6609,
      "conj": 6610,
      "NAME": 6611,
      "mv": 6612,
      "Ġsat": 6613,
      "BR": 6614,
      "547": 6615,
      "ãĤĴè¨Īç®ĹãģĻãĤĭ": 6616,
      "443": 6617,
      "|(": 6618,
      "Ġitn": 6619,
      "=~=~": 6620,
      "ĠmodInverse": 6621,
      "ĠThe": 6622,
      "Ġcache": 6623,
      "'].": 6624,
      "ãĤ£": 6625,
      "ãĤĴæİ": 6626,
      "prefix": 6627,
      "itertools": 6628,
      "éĢ²æķ°": 6629,
      "pppp": 6630,
      "reach": 6631,
      "ĠATCODER": 6632,
      "Ġwk": 6633,
      "IGHT": 6634,
      "Ġ;}": 6635,
      "161": 6636,
      "Ġ'?')": 6637,
      "basic": 6638,
      "Ġbx": 6639,
      "679": 6640,
      "cho": 6641,
      "ToString": 6642,
      "Ġ67": 6643,
      "597": 6644,
      "006": 6645,
      "1000010": 6646,
      "Chr": 6647,
      "Ġ38": 6648,
      "Ġph": 6649,
      "ĠCalc": 6650,
      "Ġ(\"%": 6651,
      "pairwise": 6652,
      "oki": 6653,
      "åĪĨæİ¢ç´¢": 6654,
      "ĠInputIt": 6655,
      "ãĥ¡ãĥ³ãĥĪ": 6656,
      "Ġrepp": 6657,
      "bucket": 6658,
      "kou": 6659,
      "æľĢå¾Į": 6660,
      "å®ļç¾©": 6661,
      "FFFFFFFF": 6662,
      "Ġwrit": 6663,
      "ãģĦãģŁ": 6664,
      "cv": 6665,
      "amp": 6666,
      "369": 6667,
      "AAAAAAAAAAAAAAAAAAAAAAAAAAAAAAAA": 6668,
      "2005": 6669,
      "ĠPO": 6670,
      "bgn": 6671,
      "ĊĊĠĠĠĠĠĠĠĠĠĠĠĠĠĠĠĠĠĠĠ": 6672,
      "ĠPr": 6673,
      "5757": 6674,
      "Ġfreq": 6675,
      "orld": 6676,
      "vvll": 6677,
      "MAP": 6678,
      "ãĤ¹ãĥĪãĥ©": 6679,
      "ä¸¦": 6680,
      "'):": 6681,
      "locale": 6682,
      "433": 6683,
      "Calc": 6684,
      "att": 6685,
      "Pro": 6686,
      "catch": 6687,
      "Ġact": 6688,
      "è¨ĺ": 6689,
      "lists": 6690,
      "ĠDijkstra": 6691,
      "ball": 6692,
      "ostringstream": 6693,
      "484": 6694,
      "å®Łè¡Į": 6695,
      "ĠIterable": 6696,
      "207": 6697,
      "rp": 6698,
      "Ġ(){": 6699,
      "Ġ'}": 6700,
      "ĠäºĮéłħä¿Ĥæķ°è¨Īç®Ĺ": 6701,
      "ĊĠĠĠĠĠĠĠĠĠĠĠĠĠĠĠĠĠĠĠĠĠĠĠĠĠĠĠĠĠ": 6702,
      "âķ¬âķ¬âķ¬âķ¬âķ¬": 6703,
      "alk": 6704,
      "ĠPolygon": 6705,
      "ãĤ¤ãĥ³ãĥĩ": 6706,
      "ĠFIXED": 6707,
      "ayami": 6708,
      "roots": 6709,
      "âłĦâłĦ": 6710,
      "Ġfinish": 6711,
      "``.": 6712,
      "ĠéłĤçĤ¹": 6713,
      "ãĥŃãĥ¼": 6714,
      "Ġ{'": 6715,
      "303": 6716,
      "ãĥĻãĤ¯ãĥĪãĥ«": 6717,
      "rip": 6718,
      "dim": 6719,
      "Ġcosts": 6720,
      "ãģ§ãĤĤ": 6721,
      "ãģªãģĭ": 6722,
      ";})": 6723,
      "Ġprop": 6724,
      "ĠIllegal": 6725,
      "multiply": 6726,
      "ãĤªãĥ¼ãĥĲ": 6727,
      "ĠreadInt": 6728,
      "ãģ¥": 6729,
      "Ġobject": 6730,
      "ĠYou": 6731,
      "559": 6732,
      "Christmas": 6733,
      "!='": 6734,
      "Ġdj": 6735,
      "ãģĦãģĦ": 6736,
      "Ġvvv": 6737,
      "ĠstdIn": 6738,
      "æľĢçŁŃè·ĿéĽ¢": 6739,
      "Ġmins": 6740,
      "Ġck": 6741,
      "ĠåĮºéĸĵ": 6742,
      "ĠBu": 6743,
      "ĠhashCode": 6744,
      "512": 6745,
      "aryOperator": 6746,
      "Al": 6747,
      "åĪ°": 6748,
      "ks": 6749,
      "Ġdor": 6750,
      "reversed": 6751,
      "ãĤĴè¦": 6752,
      "xãģ¨y": 6753,
      "Ġball": 6754,
      "Ġky": 6755,
      "809": 6756,
      "||||||||": 6757,
      "sizes": 6758,
      "sid": 6759,
      "route": 6760,
      "Ġemp": 6761,
      "ints": 6762,
      "èªŃ": 6763,
      "reen": 6764,
      "year": 6765,
      "Ford": 6766,
      "VT": 6767,
      "One": 6768,
      "Ġ79": 6769,
      "è»¢": 6770,
      "mult": 6771,
      "ally": 6772,
      "ao": 6773,
      "member": 6774,
      "ãĥĢ": 6775,
      "Ġko": 6776,
      "?????": 6777,
      "][];": 6778,
      "Ġ`.": 6779,
      "object": 6780,
      "Ġdeepcopy": 6781,
      "sugar": 6782,
      "Result": 6783,
      "Ġprim": 6784,
      "tei": 6785,
      "ĠåĨ": 6786,
      "DFS": 6787,
      "Ġtheta": 6788,
      "gb": 6789,
      ")};": 6790,
      "bbb": 6791,
      "æ§ĭéĢł": 6792,
      "ãĥ³ãĥĹ": 6793,
      "Ġsugar": 6794,
      "3233": 6795,
      "pat": 6796,
      "yout": 6797,
      "decl": 6798,
      "ypes": 6799,
      "ãĤ¤ãĥĨãĥ¬ãĥ¼ãĤ¿": 6800,
      "Ġlet": 6801,
      "Ġvvt": 6802,
      "ä¸İ": 6803,
      "Ġdirection": 6804,
      "Ġ'#':": 6805,
      "ASK": 6806,
      "ĠTS": 6807,
      "gp": 6808,
      "ç¯ĦåĽ²": 6809,
      "laz": 6810,
      "Ġost": 6811,
      "label": 6812,
      "834": 6813,
      "Ġonly": 6814,
      "507": 6815,
      "509": 6816,
      "IH": 6817,
      "Ġcmb": 6818,
      "Group": 6819,
      "549": 6820,
      "ãĤĴè¿Ķ": 6821,
      "âĢĶâĢĶ": 6822,
      "getValue": 6823,
      "1001001001": 6824,
      "ãģ®çķªåı·": 6825,
      "PRINT": 6826,
      "CharT": 6827,
      "Ġ['": 6828,
      "........................................": 6829,
      "::::::::::::::::": 6830,
      "Cur": 6831,
      "dfd": 6832,
      "ĠVVL": 6833,
      "ãģ¦ãģĦãĤĭ": 6834,
      "827": 6835,
      "ãĤĴè¡¨": 6836,
      "ãģĵãģĵãģĭãĤī": 6837,
      "Ġqq": 6838,
      "-.": 6839,
      "][-": 6840,
      "Ġdet": 6841,
      "267": 6842,
      "Ġpoly": 6843,
      "Ġexcept": 6844,
      "Ġ557": 6845,
      "309": 6846,
      "]]--;": 6847,
      "ĠãĥĨãĥ¼ãĥĸãĥ«": 6848,
      "ĠAct": 6849,
      "]={-": 6850,
      "847": 6851,
      "1100": 6852,
      "ifac": 6853,
      "nan": 6854,
      "epth": 6855,
      "Ġunder": 6856,
      "apsack": 6857,
      "456": 6858,
      "itor": 6859,
      "Ġob": 6860,
      "629": 6861,
      "Ġcustom": 6862,
      ">)": 6863,
      "ĠNA": 6864,
      "ãģĮå±ŀãģĻãĤĭ": 6865,
      "ãģ¤ãģĳãĤĭ": 6866,
      "ifd": 6867,
      "Ġ100100": 6868,
      "ĠREVERSE": 6869,
      "Ġsync": 6870,
      "ãģ¨ãģįãģ¯": 6871,
      "ĠIS": 6872,
      "ĊĠĠĠĠĠĠĠĠĠĠĠĠĠĠĠĠĠĠĠĠĠĠĠĠ": 6873,
      "çŃĶ": 6874,
      "åī²ãĤĬ": 6875,
      "Ġformat": 6876,
      ";;){": 6877,
      "setwise": 6878,
      "Ġconnect": 6879,
      "heapq": 6880,
      "Ġ360": 6881,
      "âĪ§": 6882,
      "ART": 6883,
      "865": 6884,
      "ãģĻãģ¹ãģ¦": 6885,
      "Ġlx": 6886,
      "ãĤģãĤĭ": 6887,
      "fail": 6888,
      "èī²": 6889,
      "bon": 6890,
      "Valid": 6891,
      "aquery": 6892,
      "rrrr": 6893,
      "command": 6894,
      "ãĤĴåıĸå¾Ĺ": 6895,
      "Ġwarshall": 6896,
      "5573": 6897,
      "ĊĠĠĠĊĠĠ": 6898,
      "MBMB": 6899,
      "costs": 6900,
      "ses": 6901,
      "onal": 6902,
      "222": 6903,
      "Bi": 6904,
      "ĠIndex": 6905,
      "ĊĠĠĠĠĠĠĠĠĠĠĠĠĠĠĠĠĠĠĠĠĠĠĠĠĠĠĠĠĠĠĠĠĠĠĠĠĠĠĠĠĠĠĠ": 6906,
      "ulation": 6907,
      "irt": 6908,
      "Ġ73": 6909,
      "173": 6910,
      "operation": 6911,
      "379": 6912,
      "QR": 6913,
      "maze": 6914,
      ")]++;": 6915,
      "1000005": 6916,
      "ĠChar": 6917,
      "193": 6918,
      "Ġ----": 6919,
      "Ġ(--": 6920,
      "163": 6921,
      "Ġxl": 6922,
      "æĽ´": 6923,
      "3600": 6924,
      "AND": 6925,
      "Memo": 6926,
      "å°ĳ": 6927,
      "ĠmodInt": 6928,
      "trace": 6929,
      "??????????????Â": 6930,
      "Loop": 6931,
      "'};": 6932,
      "'));": 6933,
      "you": 6934,
      "Ġprob": 6935,
      "Ġvvvi": 6936,
      "Ġï¼": 6937,
      "ended": 6938,
      "Ġpn": 6939,
      "ITY": 6940,
      "oooooooooooooooooooooooooooooooo": 6941,
      "../": 6942,
      "ToInt": 6943,
      "Ġwin": 6944,
      "Ġrfind": 6945,
      "Ġmethod": 6946,
      "5553": 6947,
      "abcc": 6948,
      "(--": 6949,
      "PLL": 6950,
      "+/": 6951,
      "ĠbinarySearch": 6952,
      "Ġ69": 6953,
      "æķ°åŃĹ": 6954,
      "_<": 6955,
      "ModInteger": 6956,
      "lus": 6957,
      "Ġinputs": 6958,
      "xãģ®": 6959,
      ")>>(": 6960,
      "={}": 6961,
      "none": 6962,
      "oku": 6963,
      "ãĥ§": 6964,
      "Fty": 6965,
      "Ġay": 6966,
      "å¼ı": 6967,
      "]--,": 6968,
      "Ġwall": 6969,
      "ãģ®éħįåĪĹ": 6970,
      "æħ": 6971,
      "ãĥ©ãĤ¤": 6972,
      "å°ıæķ°çĤ¹": 6973,
      "ĠWR": 6974,
      "Ġ377": 6975,
      "Ġtv": 6976,
      "ĠMyScanner": 6977,
      "Ġ537": 6978,
      "Ġvals": 6979,
      "3001": 6980,
      "ĠCOUNT": 6981,
      "Func": 6982,
      "was": 6983,
      "Ġchoose": 6984,
      "ãģĦãģĨ": 6985,
      "Ġ--;": 6986,
      "249": 6987,
      "SERT": 6988,
      "[]={-": 6989,
      "Ġ105": 6990,
      "ox": 6991,
      "llman": 6992,
      "sums": 6993,
      "inputs": 6994,
      "*)(": 6995,
      "linker": 6996,
      "good": 6997,
      "349": 6998,
      "227": 6999,
      "Ġcondition": 7000,
      "ï½º": 7001,
      "<<\"{\";": 7002,
      "LIM": 7003,
      "ane": 7004,
      "éĩįãģ¿": 7005,
      "book": 7006,
      "_|": 7007,
      "=\"\")": 7008,
      "11111111111111111111111111111111": 7009,
      "]-(": 7010,
      "Ġ\"))": 7011,
      "ãĤĴä½¿ãģĨ": 7012,
      "Ai": 7013,
      "IC": 7014,
      "dg": 7015,
      "org": 7016,
      "sv": 7017,
      "Ġod": 7018,
      "Ġ46": 7019,
      "vvl": 7020,
      "Ġcommon": 7021,
      "attribute": 7022,
      "125": 7023,
      "401": 7024,
      "\"};": 7025,
      ".....................................": 7026,
      "NM": 7027,
      "enw": 7028,
      "éļ£æİ¥": 7029,
      "lenbuf": 7030,
      "3456": 7031,
      ":'": 7032,
      "ĠupperBound": 7033,
      "ãģ®åħ¥åĬĽ": 7034,
      "ãģªãģĳãĤĮãģ°": 7035,
      "ĵį": 7036,
      "åıĸãĤĭ": 7037,
      "Ġinterface": 7038,
      "<!": 7039,
      "les": 7040,
      "ĊĊĉĠĠĠ": 7041,
      "çµĤäºĨ": 7042,
      ")+\"": 7043,
      "Ġway": 7044,
      "Ġbasic": 7045,
      "Ġ1024": 7046,
      "ESTOR": 7047,
      "Ġdc": 7048,
      "Ġå·¦": 7049,
      "Ġiterate": 7050,
      "And": 7051,
      "ãĤĴä½ľãĤĭåīįåĩ¦çĲĨ": 7052,
      "151": 7053,
      "rement": 7054,
      "&#": 7055,
      "Ġnil": 7056,
      "$$$": 7057,
      "amari": 7058,
      "fLL": 7059,
      "Helper": 7060,
      "Ġsplitmix": 7061,
      "Ġfoo": 7062,
      "Ġ333": 7063,
      "ubble": 7064,
      "Ġpol": 7065,
      "mis": 7066,
      "ĠMI": 7067,
      "tate": 7068,
      "âĸĪâĸĪâĸĪâĸĪâĸĪâĸĪâĸĪâĸĪâĸĪâĸĪâĸĪâĸĪâĸĪâĸĪâĸĪâĸĪ": 7069,
      "æµ": 7070,
      "Ġund": 7071,
      "Ġsv": 7072,
      "???????Â": 7073,
      "1200": 7074,
      "Ġnon": 7075,
      "desc": 7076,
      "OUBLE": 7077,
      "Li": 7078,
      "resolution": 7079,
      "è¨Ģ": 7080,
      "spoint": 7081,
      "()&&": 7082,
      "Sy": 7083,
      "ç«ĭ": 7084,
      "AIR": 7085,
      "Ġ577": 7086,
      "???????????????": 7087,
      "]||": 7088,
      "Ġcmax": 7089,
      "ãģ«ãģª": 7090,
      "fwd": 7091,
      "))]": 7092,
      "Ġ),": 7093,
      "è¾ºãģ®": 7094,
      "pointer": 7095,
      "ĵįä½ľ": 7096,
      "ĠtestNumber": 7097,
      "ĊĉĠĠĠĠĠĠĠĠ": 7098,
      "freq": 7099,
      "reps": 7100,
      "010": 7101,
      "iro": 7102,
      "447": 7103,
      "rus": 7104,
      "Ġ\"]\"": 7105,
      "RONT": 7106,
      "ãĥĿ": 7107,
      "fffffff": 7108,
      "ĊĠĠĠĠĊĊĠĠĠ": 7109,
      "ãĤ¯ãĥ©ãĤ¹": 7110,
      "Ġindexed": 7111,
      "Ġsrand": 7112,
      "yoko": 7113,
      "pn": 7114,
      "()!=": 7115,
      "...>&": 7116,
      "ĠANY": 7117,
      "Ma": 7118,
      ">>>;": 7119,
      "sertion": 7120,
      "ako": 7121,
      "åıĤ": 7122,
      "Ġcw": 7123,
      "Ġkmp": 7124,
      ")<<\"\\": 7125,
      "2001": 7126,
      "BS": 7127,
      "ĠUp": 7128,
      "Ġconvert": 7129,
      "++]);": 7130,
      "åıĹ": 7131,
      "ĠBit": 7132,
      "Ġwatch": 7133,
      "Ġ})": 7134,
      "comma": 7135,
      "Ind": 7136,
      "irtual": 7137,
      "cu": 7138,
      "ĠãĥĨãĥ¼ãĥĸãĥ«ãĤĴä½ľãĤĭåīįåĩ¦çĲĨ": 7139,
      "Ġ2017": 7140,
      "fg": 7141,
      "//@": 7142,
      "DWORD": 7143,
      "849": 7144,
      "malloc": 7145,
      "Sunny": 7146,
      "ellman": 7147,
      "bn": 7148,
      "Ġ'<": 7149,
      "ãĤ³ãĥ³ãĥĨ": 7150,
      "MO": 7151,
      "Ġclang": 7152,
      "ĠIsPrime": 7153,
      "ĊĠĠĠĠĠĠĠĠĠĠĠĠĠĠĠĠĊĠĠĠĠĠĠĠĠĠĠĠĠĠĠĠ": 7154,
      "acency": 7155,
      "Lazy": 7156,
      "uz": 7157,
      "maxN": 7158,
      "ways": 7159,
      "Ġkind": 7160,
      "Ġwhat": 7161,
      "167": 7162,
      "Ġ'#'){": 7163,
      "pivot": 7164,
      "4514": 7165,
      "_=": 7166,
      "nod": 7167,
      "bf": 7168,
      "XW": 7169,
      "ilename": 7170,
      "ĠProblem": 7171,
      "æĿ¥": 7172,
      "circle": 7173,
      "897": 7174,
      "ãģ¨ãģĭ": 7175,
      "Ġ337": 7176,
      "forn": 7177,
      "pause": 7178,
      "+-+-+-+-+-+-+-+-": 7179,
      "èµ": 7180,
      ",.": 7181,
      "repv": 7182,
      "isd": 7183,
      "Ġnk": 7184,
      "ĠprimeFactor": 7185,
      "ãģĶ": 7186,
      "HHHH": 7187,
      "ĠQuery": 7188,
      "vint": 7189,
      "ĠTr": 7190,
      "??Â¨": 7191,
      "HashSet": 7192,
      "ç§»åĭķ": 7193,
      "pairs": 7194,
      "ĠREPI": 7195,
      "beg": 7196,
      "10010": 7197,
      "ARRAY": 7198,
      "Ġ1000000009": 7199,
      "Modint": 7200,
      "ĠåĩºåĬĽ": 7201,
      "================================================": 7202,
      "rosspoint": 7203,
      "floyd": 7204,
      "(\"\".": 7205,
      "Pre": 7206,
      "ãĤĴmod": 7207,
      "310": 7208,
      "ç¨": 7209,
      "Ġumod": 7210,
      "GL": 7211,
      "lca": 7212,
      "On": 7213,
      "__((": 7214,
      "ĠMUL": 7215,
      "Ġselect": 7216,
      "ãģ¾ãģ§ãģ®": 7217,
      "Mill": 7218,
      "ius": 7219,
      "Ġ'[": 7220,
      "Ġmes": 7221,
      "Ġhh": 7222,
      "Ġsg": 7223,
      "oudy": 7224,
      "239": 7225,
      "1212": 7226,
      "TK": 7227,
      "Ġ>::": 7228,
      "Ġinitialize": 7229,
      "Hk": 7230,
      "ĠReturn": 7231,
      "lz": 7232,
      "çķªçĽ®ãģ®": 7233,
      "Ġqr": 7234,
      "*((": 7235,
      "dedge": 7236,
      "869": 7237,
      "shi": 7238,
      "tor": 7239,
      "ãĤīãĤĮãĤĭ": 7240,
      "143": 7241,
      "LOW": 7242,
      "akus": 7243,
      "Ġassign": 7244,
      "PT": 7245,
      "666": 7246,
      "PS": 7247,
      "\",&(": 7248,
      "SEG": 7249,
      "ãģ®ç¯": 7250,
      "tri": 7251,
      "ĊĠĉĉ": 7252,
      "Ġmas": 7253,
      "Ġostringstream": 7254,
      "iven": 7255,
      "Ġconnected": 7256,
      "ĊĠĠĠĠĠĠĠĠĠĠĠĠĉ": 7257,
      "Ġdelim": 7258,
      "14159265358979323846264338327950288": 7259,
      "Ġbucket": 7260,
      "449": 7261,
      "ĊĉĉĊĉĉ": 7262,
      "eff": 7263,
      "ĠINIT": 7264,
      "sgn": 7265,
      "247": 7266,
      "ather": 7267,
      "Ġamin": 7268,
      "-`": 7269,
      "currentTime": 7270,
      "SUM": 7271,
      "+='": 7272,
      "åıį": 7273,
      "ĠaddEdge": 7274,
      "Ġ----------------------------------------------------------------": 7275,
      "Ġcolors": 7276,
      "(''.": 7277,
      "Ġ1010": 7278,
      "2010": 7279,
      "ãģ«å¤īæıĽ": 7280,
      "Ġcommand": 7281,
      "å°¾": 7282,
      "enwick": 7283,
      "Ġ\"#\":": 7284,
      "ãĥĥãĤ¯ãĤ¹": 7285,
      "åĨįå¸°": 7286,
      "Ġdual": 7287,
      "é«ĺéĢŁ": 7288,
      "Ġ733": 7289,
      "sers": 7290,
      "ĠSieve": 7291,
      "Ġww": 7292,
      "Ġtrav": 7293,
      ")^": 7294,
      "113": 7295,
      "Ġpot": 7296,
      "839": 7297,
      "ird": 7298,
      "ĠDIV": 7299,
      "MD": 7300,
      "Ġsll": 7301,
      "ĠZERO": 7302,
      "Bob": 7303,
      "æĬ": 7304,
      "rnk": 7305,
      "osed": 7306,
      "Points": 7307,
      "327": 7308,
      "Ġcases": 7309,
      "Ġtd": 7310,
      "rial": 7311,
      "~~~": 7312,
      "170": 7313,
      "constant": 7314,
      "JJ": 7315,
      "å¥ĩæķ°": 7316,
      "æľĢå°ıãģ®": 7317,
      "Ġrot": 7318,
      "za": 7319,
      "Cloudy": 7320,
      "ja": 7321,
      "Ġvvint": 7322,
      "Some": 7323,
      "LEN": 7324,
      "],[": 7325,
      ")]);": 7326,
      "297": 7327,
      "éĢ£çµĲ": 7328,
      "çĻ½": 7329,
      "TEST": 7330,
      "ãĥĹãĥŃ": 7331,
      "minj": 7332,
      "çļĦãģ«": 7333,
      "ä½įåħĥ": 7334,
      "YYMM": 7335,
      "Ġcircle": 7336,
      "iti": 7337,
      "(;;){": 7338,
      "ĊĉĉĠĠ": 7339,
      "'<=": 7340,
      "sor": 7341,
      "ĿĢ": 7342,
      "Ġdate": 7343,
      "GHI": 7344,
      "Ġyi": 7345,
      "stdex": 7346,
      "stdexcept": 7347,
      "rows": 7348,
      "ents": 7349,
      "Ġ][": 7350,
      "Â´": 7351,
      "181": 7352,
      "ä¸ĬãģĴ": 7353,
      "ĠIntRange": 7354,
      "Ġlenbuf": 7355,
      "Ġalphabet": 7356,
      "//{": 7357,
      "221": 7358,
      "kx": 7359,
      "reset": 7360,
      "5557": 7361,
      "Color": 7362,
      "ĠCout": 7363,
      "âĶĢâĶĢâĶĢâĶĢâĶĢâĶĢâĶĢâĶĢ": 7364,
      "ABCDEF": 7365,
      "iso": 7366,
      "PY": 7367,
      "ĠLR": 7368,
      "Ġwill": 7369,
      "131": 7370,
      "1000000000000000000": 7371,
      "ĠXY": 7372,
      "Ġdebugline": 7373,
      "MENT": 7374,
      "//----------------------------------------------------------------": 7375,
      "invfact": 7376,
      "ĠmodPow": 7377,
      "Ġ----------": 7378,
      "lowerType": 7379,
      "ĠBi": 7380,
      "Millis": 7381,
      "online": 7382,
      "ĠWar": 7383,
      "LOG": 7384,
      "Ġisin": 7385,
      "CON": 7386,
      "upperType": 7387,
      "åĢĭãģ®": 7388,
      "entroid": 7389,
      "repr": 7390,
      "454": 7391,
      "Ġidentity": 7392,
      "584": 7393,
      "ãĤĴåĩºåĬĽ": 7394,
      "Ġfilter": 7395,
      "ians": 7396,
      "åĲĪè¨Ī": 7397,
      "676": 7398,
      "?????Â¨": 7399,
      "tae": 7400,
      "currentTimeMillis": 7401,
      "indr": 7402,
      "ratosthenes": 7403,
      ")%=": 7404,
      "suf": 7405,
      "super": 7406,
      "delta": 7407,
      "3005": 7408,
      "inity": 7409,
      "ĠĊĠĠĊĠĠĠĠĠĠĠ": 7410,
      "town": 7411,
      "Ġ20000": 7412,
      "(_)": 7413,
      "*_": 7414,
      "setf": 7415,
      "goto": 7416,
      ".........": 7417,
      "Argument": 7418,
      "Ġ114": 7419,
      "ãĤĴæºĢãģŁãģĻ": 7420,
      "Ġnm": 7421,
      "New": 7422,
      "LY": 7423,
      "99999": 7424,
      "Ġmkp": 7425,
      "Ġminn": 7426,
      "getKey": 7427,
      "possible": 7428,
      "ĠcurChar": 7429,
      "éģĶ": 7430,
      "Ġnumerator": 7431,
      "Ġ533": 7432,
      "},{-": 7433,
      "648": 7434,
      "Ġave": 7435,
      "åĪ¶": 7436,
      "171": 7437,
      "AE": 7438,
      "after": 7439,
      "Ġaux": 7440,
      "`````": 7441,
      "ĠMake": 7442,
      "repi": 7443,
      "Ġign": 7444,
      "Me": 7445,
      "..`": 7446,
      "Ġspf": 7447,
      "dummy": 7448,
      "Pt": 7449,
      "]};": 7450,
      "--(": 7451,
      "pass": 7452,
      "éĩįè¤ĩ": 7453,
      "ated": 7454,
      "ãĤ¤ãĥ³ãĥĩãĥĥãĤ¯ãĤ¹": 7455,
      "///////////////": 7456,
      "âķĲâķĲ": 7457,
      "+=\"": 7458,
      "Ġbuff": 7459,
      "EXT": 7460,
      "rotate": 7461,
      "è¦ģç´łæķ°": 7462,
      "Ġcm": 7463,
      "okori": 7464,
      "ä»¥å¤ĸ": 7465,
      "455": 7466,
      "NoSuchElementException": 7467,
      "Ġcompute": 7468,
      "819": 7469,
      "sole": 7470,
      "UC": 7471,
      "buff": 7472,
      "ov": 7473,
      "300000": 7474,
      "bp": 7475,
      "LLONG": 7476,
      "æĻĤéĸĵ": 7477,
      "kw": 7478,
      "ãģ«å¯¾ãģĹãģ¦": 7479,
      "ids": 7480,
      "ãģŁãĤģãģ«": 7481,
      "('-');": 7482,
      "][]": 7483,
      "éħįåĪĹãģ®": 7484,
      "kn": 7485,
      "ĠWH": 7486,
      "sig": 7487,
      "Ġpast": 7488,
      "Ġrate": 7489,
      "MMYY": 7490,
      "rot": 7491,
      "++(": 7492,
      "sg": 7493,
      "ford": 7494,
      "agate": 7495,
      "æĺĩéłĨ": 7496,
      "åĪ¥": 7497,
      "Ġshuffle": 7498,
      "Ġ777": 7499,
      "Ġroots": 7500,
      "ces": 7501,
      "ĠStringView": 7502,
      "çľģ": 7503,
      "ĠSET": 7504,
      "ĠFastIO": 7505,
      "ĠĊĠĠĠĠ": 7506,
      "Ġgg": 7507,
      "DBG": 7508,
      "ãģĮå±ŀãģĻãĤĭæľ¨": 7509,
      "æľ«": 7510,
      "Ġpen": 7511,
      "Ġdeli": 7512,
      "}]": 7513,
      "Ġfy": 7514,
      "Ġrepn": 7515,
      "duration": 7516,
      "aring": 7517,
      "ãģ¾ãģ¾": 7518,
      "()])": 7519,
      "3733": 7520,
      "ä¸ª": 7521,
      "Ġ}\";": 7522,
      "Ġrequire": 7523,
      "defaultdict": 7524,
      "middle": 7525,
      "ãģ«ãĤĪ": 7526,
      ";/*": 7527,
      "@@@@@@@@@@@@@@@@": 7528,
      "])):": 7529,
      "Rep": 7530,
      "IOS": 7531,
      "ĠABS": 7532,
      "ĠUB": 7533,
      "peration": 7534,
      "ccess": 7535,
      "ãĤĴèª": 7536,
      "ł´æīĢ": 7537,
      "VP": 7538,
      "MY": 7539,
      "Ġrepe": 7540,
      "Ġwarning": 7541,
      "ãģĻãĤĭãģ¨": 7542,
      "Per": 7543,
      "\").": 7544,
      "Ġcalculate": 7545,
      "cll": 7546,
      "Ġ84": 7547,
      "287": 7548,
      "kal": 7549,
      "Ġatoi": 7550,
      "ĠåĲĦ": 7551,
      ")\\": 7552,
      "lection": 7553,
      "397": 7554,
      "ãģĹãģŁãģĦ": 7555,
      "ĠNAME": 7556,
      "ĠfindSet": 7557,
      "ĠæĸĩåŃĹåĪĹ": 7558,
      "<<\",\";": 7559,
      "ç´¯ç©įåĴĮ": 7560,
      "çĿĢ": 7561,
      "Ġyear": 7562,
      "Ġ75": 7563,
      "lamr": 7564,
      "Ġ];": 7565,
      "Ġ111": 7566,
      "550": 7567,
      "000000000000000000": 7568,
      "cor": 7569,
      "aizu": 7570,
      "skip": 7571,
      "cell": 7572,
      "ãĤĴæł¼ç´į": 7573,
      "hell": 7574,
      "ArgumentException": 7575,
      "!\"": 7576,
      "569": 7577,
      "#')": 7578,
      "ĠGen": 7579,
      "Ġthree": 7580,
      "Ish": 7581,
      "äºĴ": 7582,
      "ĠWRITE": 7583,
      "ãĤ¹ãĤ¿ãĥ¼ãĥĪ": 7584,
      "Ġintersection": 7585,
      "CTOR": 7586,
      "wv": 7587,
      "Ġsuf": 7588,
      "Ġ1000000000000": 7589,
      "sage": 7590,
      "ĠPOS": 7591,
      "Ġlms": 7592,
      "Ġmore": 7593,
      "Ġlf": 7594,
      "tep": 7595,
      "Ġlargest": 7596,
      "277": 7597,
      "ĠIllegalArgumentException": 7598,
      "114514": 7599,
      "ĠPER": 7600,
      "123456789": 7601,
      "Ġlg": 7602,
      "ãģªãĤītrue": 7603,
      "aj": 7604,
      "216": 7605,
      "))<": 7606,
      "CLOCKWISE": 7607,
      "Ġbinpow": 7608,
      "259": 7609,
      "ä»¥ä¸ĭãģ®": 7610,
      "ĠIT": 7611,
      "510": 7612,
      "Ġ&)": 7613,
      "æĹ¥": 7614,
      "Ġanother": 7615,
      "}}}": 7616,
      "Ġroll": 7617,
      "scc": 7618,
      "(%": 7619,
      "An": 7620,
      "æĸ¹ãģĮ": 7621,
      "orth": 7622,
      "Ġ')';": 7623,
      "If": 7624,
      "ĠĠĠĠĠĠĠĠĠĠĠĠĠĠĠĠĠĠĠĠĠĠĠĠĠĠĠĠ": 7625,
      "mc": 7626,
      "ĠisSpace": 7627,
      "ÃĮ": 7628,
      "ĠMMMMMMMMM": 7629,
      "ĠĊĊĠĠĠ": 7630,
      "ĠLinkedList": 7631,
      "---------------": 7632,
      "ĠMN": 7633,
      "yu": 7634,
      "203": 7635,
      "Clo": 7636,
      "ãĤ´": 7637,
      "Ġthen": 7638,
      "ĠTV": 7639,
      "864": 7640,
      "Real": 7641,
      "ä»Ĭ": 7642,
      "capacity": 7643,
      "&,": 7644,
      "Ġbel": 7645,
      "Ġtab": 7646,
      "çľģçķ¥": 7647,
      "867": 7648,
      "Ġoptimization": 7649,
      "æĺ¯": 7650,
      ")++": 7651,
      "Ġ56": 7652,
      "183": 7653,
      "MA": 7654,
      "hd": 7655,
      "ãģ®æľĢå¤§åĢ¤": 7656,
      "isa": 7657,
      "Ġip": 7658,
      "device": 7659,
      "OL": 7660,
      "ĠVi": 7661,
      "ãĤĴä½¿": 7662,
      "Ġ999999999": 7663,
      "Ġyoko": 7664,
      "Tp": 7665,
      "Ġconvex": 7666,
      "idi": 7667,
      "Ġlcp": 7668,
      "Ġdia": 7669,
      "âĺ": 7670,
      "xr": 7671,
      "Ġids": 7672,
      "subtree": 7673,
      "UR": 7674,
      "Ġbf": 7675,
      "Ġmultiple": 7676,
      "Pll": 7677,
      "ĠEB": 7678,
      "503": 7679,
      "oj": 7680,
      "ãĤĵãģ§": 7681,
      "deepToString": 7682,
      "Ġtate": 7683,
      "divide": 7684,
      "859": 7685,
      "ĠSums": 7686,
      "Card": 7687,
      "153": 7688,
      "Ġ'>": 7689,
      "669": 7690,
      "candidate": 7691,
      "ĠUN": 7692,
      "ä½µ": 7693,
      "ĊĠĠĊĠĠĊĠ": 7694,
      "PriorityQueue": 7695,
      "ĠRollingHash": 7696,
      "...>>": 7697,
      "]=='#'){": 7698,
      "MH": 7699,
      "ãģ»ãģĨ": 7700,
      "Ok": 7701,
      "éĸīè·¯": 7702,
      "Ġdtype": 7703,
      "=__": 7704,
      "ãĤ±": 7705,
      "Ġappend": 7706,
      "ĠBIG": 7707,
      "argument": 7708,
      "190": 7709,
      "dn": 7710,
      "ãĥĩãĥ¼ãĤ¿x": 7711,
      "Ġrge": 7712,
      "3234": 7713,
      "ãģ®åĢ¤ãĤĴ": 7714,
      "VVVV": 7715,
      "GHIJK": 7716,
      "Ġcmin": 7717,
      "etition": 7718,
      "ĠDB": 7719,
      "nullopt": 7720,
      "Â¦Â¦Â¦Â¦": 7721,
      "ĊĉĉĠĠĠĠĠ": 7722,
      "ension": 7723,
      "modinv": 7724,
      "ç¬¬": 7725,
      "åıĹãģĳ": 7726,
      "273": 7727,
      "ĠLight": 7728,
      "Ġlam": 7729,
      "Ġspeed": 7730,
      "ãĤĴè¿ĶãģĹãģ¾ãģĻ": 7731,
      "137": 7732,
      "åĢ¤ãģĮ": 7733,
      "ãĥ³ãĤ°": 7734,
      "177": 7735,
      "Change": 7736,
      "Ġdegree": 7737,
      "Ġcir": 7738,
      "ape": 7739,
      "Depth": 7740,
      "Ġissame": 7741,
      "576": 7742,
      "Ġ).": 7743,
      "Ġbn": 7744,
      "Â¡Â¡": 7745,
      "ä¾¡": 7746,
      "205": 7747,
      "*=-": 7748,
      "Ħª": 7749,
      "Ġbut": 7750,
      "æ¤ľ": 7751,
      "Py": 7752,
      "ij": 7753,
      "ĠActual": 7754,
      "Ġtolower": 7755,
      "sat": 7756,
      "++--++--++--++--++--++--++--++--": 7757,
      "ĠFormat": 7758,
      "556": 7759,
      "XH": 7760,
      "VS": 7761,
      "ypot": 7762,
      "types": 7763,
      "ãģĿãģĨ": 7764,
      "OT": 7765,
      "140": 7766,
      "coin": 7767,
      "tour": 7768,
      "Ġil": 7769,
      "ãĤĴè¦ĭ": 7770,
      "sil": 7771,
      "å¾ĹãĤĭ": 7772,
      "Ġ',');": 7773,
      "5373": 7774,
      "Ġplug": 7775,
      "733": 7776,
      "âķ¬âķ¬âķ¬âķ¬âķ¬âķ¬âķ¬âķ¬âķ¬âķ¬âķ¬âķ¬âķ¬âķ¬âķ¬âķ¬âķ¬âķ¬âķ¬âķ¬âķ¬âķ¬âķ¬âķ¬âķ¬âķ¬âķ¬âķ¬âķ¬âķ¬âķ¬âķ¬": 7777,
      "ãģ¾ãĤĬ": 7778,
      "Ġdf": 7779,
      "Ġlowbit": 7780,
      "xd": 7781,
      "pol": 7782,
      "rea": 7783,
      "Ġmf": 7784,
      "Ġåı³": 7785,
      "ãĥ¼ãĥ«": 7786,
      "ulative": 7787,
      "·ı": 7788,
      "FRONT": 7789,
      "ĊĠĠĠĠĠĠĠĠĉĉ": 7790,
      "æĮĩå®ļ": 7791,
      "Ġrl": 7792,
      "uclid": 7793,
      "ĠMulti": 7794,
      "237": 7795,
      "åĤ": 7796,
      "ĠOF": 7797,
      "Ġways": 7798,
      "673": 7799,
      "(=": 7800,
      "184": 7801,
      "ĠVB": 7802,
      "land": 7803,
      "ãĤĴæĮģãģ¤": 7804,
      "hu": 7805,
      "ored": 7806,
      "ĠIFOR": 7807,
      "ĠVVLL": 7808,
      "//--------------------------------------------": 7809,
      "è¡ĮåĪĹ": 7810,
      "iota": 7811,
      "(\"\")": 7812,
      "Ġdud": 7813,
      "ATA": 7814,
      "ĊĠĠĠĠĠĠĠĠĠĠĠĠĠĠĠĠĠĠĠĠĠĠĠĠĠĠĠĠ": 7815,
      "Ġprt": 7816,
      "Ġprevv": 7817,
      "ãĤ«ãĤ¦": 7818,
      "ĠVE": 7819,
      "UB": 7820,
      "999999": 7821,
      "Ġvariable": 7822,
      "åĲ«ãģ¾ãĤĮãĤĭ": 7823,
      "XXX": 7824,
      "Ġbellman": 7825,
      "ãĢĤ<": 7826,
      "ĠVSORT": 7827,
      "éĸĭå§ĭ": 7828,
      "partite": 7829,
      "Ġprocess": 7830,
      "Ġgroups": 7831,
      "az": 7832,
      "~~~~~~~~~~~~~~~~": 7833,
      "Ġvsort": 7834,
      "variable": 7835,
      "Ġæ¼Ķç®Ĺ": 7836,
      "abbb": 7837,
      "ãģ®ãģ¿": 7838,
      "heapify": 7839,
      "Elements": 7840,
      "ĠTri": 7841,
      "ĦªåħĪ": 7842,
      "853": 7843,
      "full": 7844,
      "ãĤ¤ãĥ³ãĤ¿": 7845,
      "uri": 7846,
      "stop": 7847,
      "4000": 7848,
      "å®ļæķ°": 7849,
      "ĠADD": 7850,
      "Ġdivs": 7851,
      "With": 7852,
      "ogonal": 7853,
      "Do": 7854,
      "ciso": 7855,
      "}//": 7856,
      "ERE": 7857,
      "AMB": 7858,
      "ERR": 7859,
      "284": 7860,
      "ĠCC": 7861,
      "acities": 7862,
      "ched": 7863,
      "sets": 7864,
      "ida": 7865,
      "ignore": 7866,
      "ä¼": 7867,
      "Ġhp": 7868,
      "äºĮåĪĨæİ¢ç´¢": 7869,
      "åľ°": 7870,
      "5357": 7871,
      "Ġ(~": 7872,
      "566": 7873,
      "ä¿ĿæĮģ": 7874,
      "Ġbingo": 7875,
      "Ġinside": 7876,
      "ĠCPP": 7877,
      "aabb": 7878,
      "lication": 7879,
      "-'),": 7880,
      "279": 7881,
      "Ġsome": 7882,
      "Setup": 7883,
      "ĠCheck": 7884,
      "dk": 7885,
      "&$": 7886,
      "éłĨåĪĹ": 7887,
      "Ġidp": 7888,
      "Ġuset": 7889,
      "IP": 7890,
      "OUS": 7891,
      "Ġrtn": 7892,
      "æį": 7893,
      "Ġ'''": 7894,
      "alindr": 7895,
      "Ġsquare": 7896,
      "1012": 7897,
      "Ġ'))": 7898,
      "Cross": 7899,
      "ĠBuilt": 7900,
      "filter": 7901,
      "Ġ1200": 7902,
      "eln": 7903,
      "893": 7904,
      "bsetlen": 7905,
      "<<\":\";": 7906,
      "737": 7907,
      "tu": 7908,
      "Ġscn": 7909,
      "141": 7910,
      "logN": 7911,
      "åģ¶æķ°": 7912,
      "244": 7913,
      "owel": 7914,
      "Ġ}//": 7915,
      "structor": 7916,
      "Ġreset": 7917,
      "âĸĢâĸĢâĸĢâĸĢ": 7918,
      "Ġlabel": 7919,
      "ĠmergeSort": 7920,
      "ĠCHelper": 7921,
      "ĠROF": 7922,
      "Ġproblem": 7923,
      "BACK": 7924,
      "Ġ\"--": 7925,
      "ĠnPr": 7926,
      "136": 7927,
      "ĊĊĉĊ": 7928,
      "Ġgyaku": 7929,
      "Ġyield": 7930,
      "ãģªãĤīãģ°": 7931,
      "Ġpoll": 7932,
      "Ġdenominator": 7933,
      "ĠCopy": 7934,
      "Ġ1000000001": 7935,
      "nmax": 7936,
      "Âģ": 7937,
      "Ġ{},": 7938,
      "è¨¼": 7939,
      "æ®ĭ": 7940,
      "ĠTRACE": 7941,
      "ĠfastIO": 7942,
      "IGU": 7943,
      "Ĭ¶": 7944,
      "Ġmv": 7945,
      "sout": 7946,
      "ĠBigDecimal": 7947,
      "255": 7948,
      "Ġdistances": 7949,
      "#'": 7950,
      "Ġauthor": 7951,
      "iiii": 7952,
      "ential": 7953,
      "spf": 7954,
      "qx": 7955,
      "3375": 7956,
      "ruskal": 7957,
      "844": 7958,
      "Ġtask": 7959,
      "vn": 7960,
      "elist": 7961,
      "Impl": 7962,
      "ãģ«æ³¨æĦı": 7963,
      "cases": 7964,
      "inate": 7965,
      "ĠTEST": 7966,
      "Ġsay": 7967,
      "solver": 7968,
      "foo": 7969,
      "ï¾ĥ": 7970,
      "rall": 7971,
      "ĠThis": 7972,
      "ĠCode": 7973,
      "Ġ\":(\"": 7974,
      "ĠInter": 7975,
      "601": 7976,
      "mu": 7977,
      "ĠIINF": 7978,
      "MSC": 7979,
      ");};": 7980,
      "2233": 7981,
      "253": 7982,
      "}});": 7983,
      "åĳ¼": 7984,
      "ople": 7985,
      "ified": 7986,
      "ful": 7987,
      "Xk": 7988,
      "263": 7989,
      "ĠArrayDeque": 7990,
      "__),": 7991,
      "823": 7992,
      "434": 7993,
      "ran": 7994,
      "Ġrf": 7995,
      "ĠsqrtNum": 7996,
      "]=='?": 7997,
      "Ġxmin": 7998,
      "Ab": 7999,
      "ting": 8000,
      "Ġcarry": 8001,
      "APP": 8002,
      "ĠSA": 8003,
      "ãĤĮãģªãģĦ": 8004,
      "]]]": 8005,
      "rate": 8006,
      "Â§": 8007,
      "ik": 8008,
      "æĽ¿": 8009,
      "Adj": 8010,
      "ĠComplex": 8011,
      "Ġep": 8012,
      "126": 8013,
      "·»": 8014,
      "ãĤ¨ãĥª": 8015,
      "ription": 8016,
      "ĠRun": 8017,
      "IGUOUS": 8018,
      "Field": 8019,
      "Ġlz": 8020,
      "ĠStart": 8021,
      "Negative": 8022,
      "âĸĳâĸĮ": 8023,
      "Ġrreps": 8024,
      "mg": 8025,
      "ABCDEFGHIJK": 8026,
      "ntil": 8027,
      "257": 8028,
      "åįĬ": 8029,
      "Ġ--(": 8030,
      "èªŃãģ¿": 8031,
      "ãĤ¨ãĥ©ãĥ¼": 8032,
      "ĠInputF": 8033,
      "432": 8034,
      ">((": 8035,
      "Tri": 8036,
      "ÃĹ": 8037,
      "Ġvirtual": 8038,
      "ĠFunc": 8039,
      "'),": 8040,
      "Ķ¹": 8041,
      "fastio": 8042,
      "minimum": 8043,
      "indices": 8044,
      "ĠBool": 8045,
      "Ġruim": 8046,
      "achi": 8047,
      "!(": 8048,
      "·±": 8049,
      "ĠUpdate": 8050,
      "Position": 8051,
      "--------------": 8052,
      "Ġsuma": 8053,
      "Ġmincost": 8054,
      "]+\"": 8055,
      "Ġ737": 8056,
      "disable": 8057,
      "finish": 8058,
      ">()(": 8059,
      "Ġfflush": 8060,
      "833": 8061,
      "dv": 8062,
      "ixPoint": 8063,
      ")||": 8064,
      "bk": 8065,
      "ainy": 8066,
      "ĠRANGE": 8067,
      "hand": 8068,
      "bãģ®": 8069,
      "ãĥ¼ãĥ³": 8070,
      "ãĤĴè¿": 8071,
      "ãĤĴè¡Į": 8072,
      "Ġpost": 8073,
      "545": 8074,
      "Ġoss": 8075,
      "kei": 8076,
      "Temp": 8077,
      "AMBIGUOUS": 8078,
      "876": 8079,
      "éģ©": 8080,
      "ãĥŀãĤ¹": 8081,
      "ãĥ¼ãĤ·": 8082,
      "Rotate": 8083,
      "VB": 8084,
      "è¾ŀ": 8085,
      "Ġmodulus": 8086,
      "603": 8087,
      "ãĤ¯ãĤ¿": 8088,
      "have": 8089,
      "Ġeprintf": 8090,
      "Ġsta": 8091,
      "ãĤ¯ãĤ¨ãĥª": 8092,
      "orial": 8093,
      "536000": 8094,
      "641": 8095,
      "049": 8096,
      "åº§æ¨Ļ": 8097,
      "[]{": 8098,
      "ä¹Ĺæ³ķ": 8099,
      "Ġforward": 8100,
      "method": 8101,
      "ĉĠ": 8102,
      "Ġtransform": 8103,
      "kaku": 8104,
      "_##": 8105,
      "ae": 8106,
      "WR": 8107,
      "èªį": 8108,
      "ï¿£ï¿£ï¿£ï¿£": 8109,
      "Ġfree": 8110,
      "Ġfactorization": 8111,
      "293": 8112,
      "ithme": 8113,
      "697": 8114,
      "217": 8115,
      "ãģĶãģ¨": 8116,
      "Ġbook": 8117,
      "810": 8118,
      "Ġstrchr": 8119,
      "ĠITR": 8120,
      "Ġgiven": 8121,
      "Ġpob": 8122,
      "Ġ'.'){": 8123,
      "åĨĨ": 8124,
      "ict": 8125,
      "ĠTo": 8126,
      "ãģįæıĽ": 8127,
      "Ġito": 8128,
      "Dec": 8129,
      "ï½ŀ": 8130,
      "cbegin": 8131,
      "ç¸®": 8132,
      "Ġcv": 8133,
      "ãĤģãģ¦": 8134,
      "Ġascii": 8135,
      "993": 8136,
      "Ġ1000000000000000": 8137,
      "limiter": 8138,
      "Ġmmax": 8139,
      "779": 8140,
      "ĠInf": 8141,
      "ä¸Ģçķª": 8142,
      "Ġsmaller": 8143,
      "Found": 8144,
      "ãĥ©ãĥª": 8145,
      "uclide": 8146,
      "Ġexpr": 8147,
      "ãĤĴmodãģ§åī²ãģ£ãģŁä½ĻãĤĬ": 8148,
      "ãĥ©ãĤ¤ãĥĸ": 8149,
      "Ġ43": 8150,
      "Ġ74": 8151,
      "Ġ//}": 8152,
      "ithmetic": 8153,
      ">(),": 8154,
      "âĸĳâĸĳâĸĳâĸĳâĸĳâĸĳâĸĳâĸĳ": 8155,
      "stion": 8156,
      "Ġbef": 8157,
      "ĠBuffered": 8158,
      "Ġstock": 8159,
      "ĠMD": 8160,
      "printable": 8161,
      "Ġuniform": 8162,
      "cles": 8163,
      "))==": 8164,
      "Ġbp": 8165,
      "dl": 8166,
      "wall": 8167,
      "lof": 8168,
      "Ġforslr": 8169,
      "CS": 8170,
      "ĉĠĠĠ": 8171,
      "normal": 8172,
      "IND": 8173,
      "ãĥ©ãĤ¤ãĥĸãĥ©ãĥª": 8174,
      "Ġfacts": 8175,
      "ĠWA": 8176,
      "oy": 8177,
      "................................................": 8178,
      "Ġ76": 8179,
      "Ġterm": 8180,
      "osition": 8181,
      "Ġmb": 8182,
      "ĠReader": 8183,
      "æ¯Ķè¼ĥ": 8184,
      "proj": 8185,
      "OB": 8186,
      "ĊĊĠĠĠĠĊĠĠĠ": 8187,
      "ĠMY": 8188,
      "ĠDist": 8189,
      "ä½µåĲĪ": 8190,
      "****/": 8191,
      "289": 8192,
      "-------------": 8193,
      "ĠCollections": 8194,
      "LMNO": 8195,
      "156": 8196,
      "imple": 8197,
      "æķ°åĢ¤": 8198,
      "nf": 8199,
      "rch": 8200,
      "arraycopy": 8201,
      "ĉĊĉĉ": 8202,
      "Unprintable": 8203,
      "eof": 8204,
      "Good": 8205,
      "2147483647": 8206,
      "Hello": 8207,
      "gnost": 8208,
      "ĠIntMod": 8209,
      "Ġcell": 8210,
      "stract": 8211,
      "EL": 8212,
      "|||": 8213,
      "wb": 8214,
      "ãģ§ãģ¯ãģªãģĦ": 8215,
      "UNR": 8216,
      "3200": 8217,
      "ãģªãģĹ": 8218,
      "Ġpositive": 8219,
      "declval": 8220,
      "Elof": 8221,
      "Ġdsu": 8222,
      "tient": 8223,
      "nec": 8224,
      "Conn": 8225,
      "Ġql": 8226,
      "xf": 8227,
      "857": 8228,
      "Ġiii": 8229,
      "Ġwhere": 8230,
      "onlinejudge": 8231,
      "UFF": 8232,
      "ĠCard": 8233,
      "ä¸¡": 8234,
      "873": 8235,
      "ping": 8236,
      "Ġstable": 8237,
      "Update": 8238,
      "ression": 8239,
      "airent": 8240,
      "BigDecimal": 8241,
      "_){": 8242,
      "Positive": 8243,
      "STACK": 8244,
      "Ġlocal": 8245,
      "Rainy": 8246,
      "indexes": 8247,
      ",,,,,,,,": 8248,
      "Ġki": 8249,
      "640": 8250,
      "ESTORABLE": 8251,
      "144": 8252,
      "ĠBR": 8253,
      "igraph": 8254,
      "è¤ĩæķ°": 8255,
      "JY": 8256,
      "ĠFOREACH": 8257,
      "ä¾¿": 8258,
      "ï¼ı": 8259,
      "ãĤĴè¡¨ãģĻ": 8260,
      "Ġ<,": 8261,
      "ĠCON": 8262,
      "XYZ": 8263,
      "bef": 8264,
      "æĭ": 8265,
      "ãĥĦãģ¤": 8266,
      "Ġole": 8267,
      "ĠPt": 8268,
      "Pk": 8269,
      "Ġkou": 8270,
      "éĮ": 8271,
      "cccc": 8272,
      "AM": 8273,
      "tn": 8274,
      "Ġ'[';": 8275,
      "Ġlcs": 8276,
      "hashi": 8277,
      "1103": 8278,
      "110000": 8279,
      "UNRESTORABLE": 8280,
      "joint": 8281,
      "¿åħ¥": 8282,
      "Ġstore": 8283,
      "vvv": 8284,
      "â¢": 8285,
      "Ġvvp": 8286,
      "Ġwr": 8287,
      "largest": 8288,
      "Diff": 8289,
      "Ġruic": 8290,
      "âĹ": 8291,
      "Ġ<(": 8292,
      "åıĸãĤĬåĩºãģĻ": 8293,
      "éĿ¢": 8294,
      "åĲ«ãĤĢ": 8295,
      "REC": 8296,
      "Ġdiagnost": 8297,
      "isuu": 8298,
      "compute": 8299,
      "ä½ľçĶ¨": 8300,
      "Ġdiagnostic": 8301,
      "EY": 8302,
      "ãĥĨãĥ³ãĥĹ": 8303,
      "edTree": 8304,
      "ãĤ«ãĤ¦ãĥ³ãĥĪ": 8305,
      "ãĥĨãĥ³ãĥĹãĥ¬": 8306,
      "Ġfail": 8307,
      "Ġhist": 8308,
      "AH": 8309,
      "strcmp": 8310,
      "ãģ«ãģĬ": 8311,
      "ĠOperator": 8312,
      "176": 8313,
      "ĠVertex": 8314,
      "Ġ##__": 8315,
      "__,_": 8316,
      "'<<": 8317,
      "Ġ110": 8318,
      "player": 8319,
      "arc": 8320,
      "ĠMINUS": 8321,
      "ĠFILE": 8322,
      "oh": 8323,
      "Ġ\"<": 8324,
      "ĠFr": 8325,
      "ĠREPD": 8326,
      "ĠOK": 8327,
      "ordinate": 8328,
      ")<<\",": 8329,
      "yb": 8330,
      "Reverse": 8331,
      "ĠInitial": 8332,
      "Pointer": 8333,
      "tools": 8334,
      "maximum": 8335,
      "??Â°": 8336,
      "Ġmoji": 8337,
      "vertices": 8338,
      "Ġpip": 8339,
      "ï¼¿ï¼¿": 8340,
      "çī©": 8341,
      "å¼µ": 8342,
      "')*": 8343,
      "las": 8344,
      "ĊĊĊĊĊĊĊ": 8345,
      "Ġvin": 8346,
      "ABCDEFGHIJKLMNO": 8347,
      "ãĤ¤ãĥ«": 8348,
      "ĊĉĊĊ": 8349,
      "Ġheapify": 8350,
      "ipy": 8351,
      "240": 8352,
      "--()": 8353,
      "ĠQueue": 8354,
      "RS": 8355,
      "Ġinner": 8356,
      "è¨Īç®Ĺéĩıãģ¯": 8357,
      "ãģ§åĪĿæľŁåĮĸ": 8358,
      "ãĤĴæĽ´æĸ°": 8359,
      "tk": 8360,
      "ĠFty": 8361,
      "Hr": 8362,
      "Ġctr": 8363,
      "]=='.'){": 8364,
      "Ġ[&]": 8365,
      "æĻĤãģ¯": 8366,
      "260": 8367,
      "Ġsetfill": 8368,
      "#############": 8369,
      "fh": 8370,
      "uclidean": 8371,
      ",\"%": 8372,
      "èī¯": 8373,
      "Row": 8374,
      "Ġhand": 8375,
      "edGraph": 8376,
      "ĠâĨĴ": 8377,
      "(\",": 8378,
      "Ġæķ´æķ°": 8379,
      "%%%": 8380,
      "=\"<<(": 8381,
      "unsafe": 8382,
      "ĠSQWORD": 8383,
      "219": 8384,
      "ł±": 8385,
      "non": 8386,
      "jc": 8387,
      "ĊĉĉĉĠ": 8388,
      "114": 8389,
      "įĺ": 8390,
      "rary": 8391,
      "Ġsuffix": 8392,
      "GB": 8393,
      "='')": 8394,
      "HO": 8395,
      "837": 8396,
      "decode": 8397,
      "amage": 8398,
      "snd": 8399,
      "Ġtoupper": 8400,
      "å½ĵ": 8401,
      "{-": 8402,
      "oss": 8403,
      "304": 8404,
      "éĮ²": 8405,
      "RANGE": 8406,
      "7733": 8407,
      "ĊĊĠĠĠĠĠĠĠĠ": 8408,
      "FR": 8409,
      ":/": 8410,
      "Ġrg": 8411,
      "ban": 8412,
      "ĠPar": 8413,
      "Ġthere": 8414,
      "'];": 8415,
      "''''''''": 8416,
      "cir": 8417,
      "xxxxxxxxxxxxxxxxxxxxxxxxxxxxxxxxxxxxxxxxxxxxxxxxxxxxxxxxxxxxxxxx": 8418,
      "ãģĦãģªãģĦ": 8419,
      "åħ¨éĥ¨": 8420,
      "Des": 8421,
      "vm": 8422,
      "ĠLoop": 8423,
      "directed": 8424,
      "RSTU": 8425,
      "ĠMerge": 8426,
      "pm": 8427,
      "Ġrootj": 8428,
      "ĊĊĊĊĊĊĊĊĊĊĊĊĊĊĊĊĊĊĊĊĊĊĊĊĊĊĊĊĊĊĊĊ": 8429,
      "youtu": 8430,
      "Ġ****/": 8431,
      "sj": 8432,
      "streambuf": 8433,
      "replacement": 8434,
      "299": 8435,
      "ä¸İãģĪ": 8436,
      "ãĤªãĥ¼ãĥĲãĥ¼ãĥķ": 8437,
      "//~": 8438,
      "rooti": 8439,
      "801": 8440,
      "141592653589793238462643383279502884": 8441,
      "ãĥĥãĥĹ": 8442,
      "ĠLi": 8443,
      "Ġook": 8444,
      "ĠBL": 8445,
      "/*--------------------------------": 8446,
      ":--": 8447,
      "Ġcharacter": 8448,
      "(*(": 8449,
      "243": 8450,
      "ãĤ¿ãĥ¼ãĥ³": 8451,
      "??????????????????": 8452,
      "æĥ": 8453,
      "ï¼ĳ": 8454,
      "Factorial": 8455,
      "Ġĉĉĉ": 8456,
      "kae": 8457,
      "prevv": 8458,
      "Mi": 8459,
      "ĊĊĠĠĠĠĠĠ": 8460,
      "Ġcoin": 8461,
      "Default": 8462,
      "Ġpque": 8463,
      "uy": 8464,
      "])>": 8465,
      "Ġexec": 8466,
      "Ġ'+')": 8467,
      "ãĥ¡ãĥ¢": 8468,
      "214": 8469,
      "883": 8470,
      "ĠWorld": 8471,
      "waru": 8472,
      "]<<\"\\": 8473,
      "Ġoverload": 8474,
      "Ġdays": 8475,
      "__))": 8476,
      "Ġsubtree": 8477,
      "Test": 8478,
      "Ptr": 8479,
      "very": 8480,
      "Match": 8481,
      "ãģĵãģĨ": 8482,
      "appendleft": 8483,
      "ãĤĪãĤĬå¤§ãģįãģĦ": 8484,
      "2017": 8485,
      "?????????????????Â": 8486,
      "Ġ96": 8487,
      "ABCDEFGHIJKLMNOPQ": 8488,
      "Ġ',';": 8489,
      "Ġtag": 8490,
      "fw": 8491,
      "678": 8492,
      "Ġwords": 8493,
      "ä»£åħ¥": 8494,
      "Ġxa": 8495,
      ")('": 8496,
      "154": 8497,
      "moji": 8498,
      "LinkedList": 8499,
      "Ġdna": 8500,
      "Ġèĩª": 8501,
      "Dp": 8502,
      "æľ«å°¾": 8503,
      "imos": 8504,
      "akahashi": 8505,
      "Ġ'.':": 8506,
      "Ġalp": 8507,
      "Ġ31536000": 8508,
      "Ġ\")))": 8509,
      "Ġbigint": 8510,
      "oper": 8511,
      "ãĤ§ãĥĥãĤ¯": 8512,
      "ĠFormatter": 8513,
      "Ġ1001": 8514,
      "QQ": 8515,
      "ãĥķãĤ¡": 8516,
      "stoi": 8517,
      "Ġdisp": 8518,
      "cstddef": 8519,
      "Ġix": 8520,
      "Ġfpoint": 8521,
      "ĠBFS": 8522,
      "Ġlin": 8523,
      "Ġpbds": 8524,
      "Ġask": 8525,
      "ä¸Ģãģ¤": 8526,
      "rootj": 8527,
      "Ġcombi": 8528,
      "ĠFi": 8529,
      "ĠCopyright": 8530,
      "Ġ\"]\\": 8531,
      "pred": 8532,
      "divi": 8533,
      "Ġ\">": 8534,
      "843": 8535,
      "ĠĠĊĠĠĠĠĠĠĠĠĠĠĠ": 8536,
      "WN": 8537,
      "COUNT": 8538,
      "&(-": 8539,
      "1112": 8540,
      "lol": 8541,
      "200000000": 8542,
      "è±": 8543,
      "Ġboth": 8544,
      "BBBB": 8545,
      "[]>": 8546,
      "Ġ78": 8547,
      "Ġprv": 8548,
      "ãģ¨ãģįãģ«": 8549,
      "Users": 8550,
      "çħ": 8551,
      "Ġprintv": 8552,
      "Ġrfact": 8553,
      "åºı": 8554,
      "icro": 8555,
      "inserter": 8556,
      "åĲĮãģĺæľ¨": 8557,
      "nable": 8558,
      "kv": 8559,
      "OOST": 8560,
      "');}": 8561,
      "Ġ(++": 8562,
      "isprime": 8563,
      "ĠpowMod": 8564,
      "()):": 8565,
      "Ġlook": 8566,
      "FastScanner": 8567,
      "Stable": 8568,
      "Bad": 8569,
      "881": 8570,
      "Ġzs": 8571,
      "Ġ3000": 8572,
      "+\",": 8573,
      "593": 8574,
      "Ġxmax": 8575,
      ",[&](": 8576,
      "Ġlens": 8577,
      "åŁº": 8578,
      "rw": 8579,
      "='\\": 8580,
      "Ġæİ": 8581,
      "ĠAl": 8582,
      "</": 8583,
      "??Â§": 8584,
      "å®Įåħ¨": 8585,
      "Ġmacro": 8586,
      "Ġifstream": 8587,
      "Ġpu": 8588,
      "ãģĵãģ¨ãĤĴ": 8589,
      "¼ķæķ°": 8590,
      "xxx": 8591,
      "fu": 8592,
      "ĠmaxN": 8593,
      "colors": 8594,
      "````````````": 8595,
      "Ġ122": 8596,
      "Ġhit": 8597,
      "ï½¨": 8598,
      "FE": 8599,
      "Ġ+(": 8600,
      "ðŁĴ": 8601,
      "ĠOr": 8602,
      "250": 8603,
      "ĠCP": 8604,
      "ĠãĢĢĠãĢĢ": 8605,
      "863": 8606,
      "1919": 8607,
      "ãģĲ": 8608,
      "andard": 8609,
      "ãģ¾ãģŁ": 8610,
      "zx": 8611,
      "NE": 8612,
      "§ç¸®": 8613,
      "Divisor": 8614,
      "('-'),": 8615,
      "Exp": 8616,
      "ient": 8617,
      "VC": 8618,
      "Ġdynamic": 8619,
      "ĺĩéłĨ": 8620,
      "Filter": 8621,
      "ãģĹãģ¦ãģĬãģı": 8622,
      "Ġtrees": 8623,
      "803": 8624,
      "ĊĠĠĠĠĊĠĠĠĠĊĠĠĠĠĊĠĠĠĠ": 8625,
      "8000": 8626,
      "æ±ĤãĤģ": 8627,
      "ãģ®åŃĲ": 8628,
      "Ġface": 8629,
      "ãĤªãĥ¼ãĥĲãĥ¼ãĥķãĥŃãĥ¼": 8630,
      "Ġga": 8631,
      "Ðł": 8632,
      "ĠVC": 8633,
      "Ġmu": 8634,
      ")),(": 8635,
      "âķĹ": 8636,
      "where": 8637,
      "call": 8638,
      "590": 8639,
      "155": 8640,
      "çħ§": 8641,
      "ãĤīãģªãģĦ": 8642,
      "valSegTree": 8643,
      "Ġ\":\"\")<<": 8644,
      "ĠNext": 8645,
      "è±¡": 8646,
      "light": 8647,
      "Ġnormalize": 8648,
      "=='-": 8649,
      "Ġbug": 8650,
      "174": 8651,
      ")>;": 8652,
      "jd": 8653,
      "select": 8654,
      "ĠDiv": 8655,
      "332": 8656,
      "Ġ3200": 8657,
      "2018": 8658,
      "é¡ŀ": 8659,
      "ĠæľĢå¤§åħ¬ç´Ħæķ°": 8660,
      "ĠinitValue": 8661,
      "283": 8662,
      "Ġ86": 8663,
      "ĊĠĠĠĠĉĠĠĠ": 8664,
      "Ġregex": 8665,
      "]]+=": 8666,
      "InputMismatchException": 8667,
      "866": 8668,
      "ãĤŃãĥ¼": 8669,
      "LN": 8670,
      "Ġ~(": 8671,
      "mf": 8672,
      "<>());": 8673,
      "REAT": 8674,
      "Ġcho": 8675,
      "ãģ®ç·ı": 8676,
      "ĠĠĠĠĠĠĠĠĠĠĠĠĠĠĠĠĠĠĠĠĠĠĠĠĠĠĠĠĠĠĠĠĠĠĠĠĠĠĠĠĠĠĠĠĠĠĠĠĠĠĠĠĠĠĠĠĠĠĠĠĠĠĠĠĠĠĠĠĠĠĠĠĠĠĠĠĠĠĠĠĠĠĠĠĠĠĠĠĠĠĠĠĠĠĠĠĠĠĠĠĠĠĠĠĠĠĠĠĠĠĠĠĠĠĠĠĠĠĠĠĠĠĠĠĠĠĠĠĠĠĠĠĠĠĠĠĠĠĠĠĠĠĠĠĠĠĠĠĠĠĠĠĠĠĠĠĠĠĠĠĠĠĠĠĠĠĠĠĠĠĠĠĠĠĠĠĠĠĠĠĠĠĠĠĠĠĠĠĠĠĠĠĠĠĠĠĠĠĠĠĠĠĠĠĠĠĠĠĠĠĠĠĠĠĠĠĠĠĠĠĠĠĠĠĠĠĠĠĠĠĠĠĠĠĠĠĠĠĠĠĠĠĠĠĠĠĠĠĠĠĠĠĠĠĠĠ": 8677,
      "497": 8678,
      "ĠskipUnprintable": 8679,
      "ĠAuto": 8680,
      "¢ãģĻ": 8681,
      "Ġ94": 8682,
      "]//": 8683,
      "The": 8684,
      "ocale": 8685,
      "tle": 8686,
      "Ġintmax": 8687,
      "146": 8688,
      "Ġ'-';": 8689,
      "Ġ201103": 8690,
      "çµĤãĤı": 8691,
      "lease": 8692,
      "Ġ-->": 8693,
      "ĠâĸĪâĸĪâĸĪ": 8694,
      "ï¼Ĳ": 8695,
      "ABCDEFGHIJKLMNOPQRSTU": 8696,
      "hit": 8697,
      "mr": 8698,
      "äº¤å·®": 8699,
      "âķļ": 8700,
      "Ġshould": 8701,
      "Ġfio": 8702,
      "iosfwd": 8703,
      "Ġdl": 8704,
      "Eg": 8705,
      "Ġqi": 8706,
      "ccc": 8707,
      "todo": 8708,
      "ãģĹãģĭ": 8709,
      "Ġ753": 8710,
      "Ġinpl": 8711,
      "ãģ¨ãģįãģ®": 8712,
      "@````````````````````````````````````````": 8713,
      "ãģĮãģĤ": 8714,
      "alindrome": 8715,
      "Union": 8716,
      "Ġ1234": 8717,
      "Ġly": 8718,
      "Ġ!!": 8719,
      "320": 8720,
      ">[]": 8721,
      "aw": 8722,
      "Ġ200010": 8723,
      "Whitespace": 8724,
      "Solve": 8725,
      "527": 8726,
      "å¼ķ": 8727,
      "7737": 8728,
      "unchecked": 8729,
      "rin": 8730,
      "acent": 8731,
      "Height": 8732,
      "Ġ2018": 8733,
      "Power": 8734,
      "Â¶Â¶Â¶Â¶": 8735,
      "3010": 8736,
      "Ġprepare": 8737,
      "Jo": 8738,
      "æīĭ": 8739,
      "ãģĿãģ®ãģ¾ãģ¾": 8740,
      "âĸĪâĸĪâĸĪâĸĪâĸĪ": 8741,
      "ä»ĺãģį": 8742,
      "Ġscipy": 8743,
      "ĊĉĉĉĉĊĉĉ": 8744,
      "Ġ'?'": 8745,
      "Ġrmq": 8746,
      "Ġãģĵãģ®": 8747,
      "------": 8748,
      "hy": 8749,
      "Ġranges": 8750,
      "ĠYn": 8751,
      "ãĤĴæ¸": 8752,
      "Ġtok": 8753,
      "(\"#\");": 8754,
      "square": 8755,
      "ofit": 8756,
      "ĠresIndex": 8757,
      "CR": 8758,
      "Ġbetween": 8759,
      "æ¡ģçĽ®": 8760,
      "itemcount": 8761,
      "Ġlol": 8762,
      "MPL": 8763,
      "009": 8764,
      "10005": 8765,
      "collections": 8766,
      "Ġ999": 8767,
      "binarySearch": 8768,
      "TABLE": 8769,
      "308": 8770,
      "pnt": 8771,
      "Ġmember": 8772,
      "Ġrrui": 8773,
      "sidue": 8774,
      "·±ãģķ": 8775,
      "[%": 8776,
      ";_": 8777,
      "qw": 8778,
      "status": 8779,
      "106": 8780,
      "874": 8781,
      "ABCDEFGHIJKLMNOPQRSTUVW": 8782,
      "otal": 8783,
      "Pii": 8784,
      "mae": 8785,
      "ãģĳãģªãģĦ": 8786,
      "Ġ\"#\";": 8787,
      "Ġfrac": 8788,
      "Ġpil": 8789,
      "BA": 8790,
      "forp": 8791,
      "jou": 8792,
      "indexOf": 8793,
      "ãģªãģĭãģ£ãģŁ": 8794,
      "aten": 8795,
      "ĠDD": 8796,
      "ĠPy": 8797,
      "USH": 8798,
      "Top": 8799,
      "è¿ĳ": 8800,
      "ĠBellman": 8801,
      "ĠĠĠĠĠĠĠĠĠĠĠĠĠĠĠĠĠĠĠĠĠĠĠĠĠĠĠĠĠĠĠĠĠĠĠĠĠĠĠĠĠĠĠĠĠĠĠĠĠĠĠĠĠĠĠĠĠĠĠĠĠ": 8802,
      "infinity": 8803,
      "ers": 8804,
      "186": 8805,
      "ħåł±": 8806,
      "Ġzeros": 8807,
      "Ġyp": 8808,
      "261": 8809,
      "[][])": 8810,
      "Ġfactorize": 8811,
      "çİ": 8812,
      "ĠBegin": 8813,
      "blen": 8814,
      "________________________________": 8815,
      "191": 8816,
      "Ġ\"(\";": 8817,
      "@#": 8818,
      "gl": 8819,
      ";){": 8820,
      "ç¢ºèªį": 8821,
      "Ġ):": 8822,
      "------------------": 8823,
      "ĠâĸĪâĸĪâĸĪâĸĪâĸĪâĸĪâĸĪâĸĪ": 8824,
      "VED": 8825,
      "du": 8826,
      "Ġgold": 8827,
      "Four": 8828,
      "811": 8829,
      "ĠLazySegmentTree": 8830,
      "âķ¬âķ¬âķ¬âķ¬âķ¬âķ¬âķ¬": 8831,
      "[:]": 8832,
      "Ġargument": 8833,
      "Ġleaf": 8834,
      "three": 8835,
      "Ġring": 8836,
      "Ġcnts": 8837,
      "SL": 8838,
      "3212": 8839,
      "convert": 8840,
      "éģķ": 8841,
      "nãģ®": 8842,
      ")<<(": 8843,
      "ðŁĴ©": 8844,
      "'][": 8845,
      "Down": 8846,
      "Ġsink": 8847,
      "Ġ>>(": 8848,
      "java": 8849,
      "]?": 8850,
      "264": 8851,
      "ï½«": 8852,
      "days": 8853,
      "ONE": 8854,
      "ãĤĴèĢĥ": 8855,
      "ĠXX": 8856,
      "Ġ'(')": 8857,
      "??Â´": 8858,
      "Floyd": 8859,
      "Mo": 8860,
      "ouse": 8861,
      "Ġ!(*": 8862,
      "èª¿ãģ¹ãĤĭ": 8863,
      "nil": 8864,
      "denom": 8865,
      "Ġ<>": 8866,
      "curbuf": 8867,
      "270": 8868,
      "myp": 8869,
      "Ġlru": 8870,
      "Float": 8871,
      "ĠReverse": 8872,
      "Ġones": 8873,
      "ĠDEF": 8874,
      "599": 8875,
      "Ġ();": 8876,
      "563": 8877,
      "TL": 8878,
      "Ġppb": 8879,
      "OUTPUT": 8880,
      "([])": 8881,
      "())-": 8882,
      ":\\": 8883,
      "821": 8884,
      "Ġsit": 8885,
      "ãģ¡ãĤĥ": 8886,
      "ĠÐł": 8887,
      "addEdge": 8888,
      "abbc": 8889,
      "nis": 8890,
      "Ġ\"?": 8891,
      "ĠextGCD": 8892,
      "IndexedTree": 8893,
      "ãģ®æł¹ãģĮåĲĮãģĺ": 8894,
      "Ð¾": 8895,
      "ãĥ½": 8896,
      "Printer": 8897,
      "11234": 8898,
      "under": 8899,
      "tf": 8900,
      "writ": 8901,
      "Ġsatis": 8902,
      "Ġngr": 8903,
      "IVE": 8904,
      "chi": 8905,
      "ĠSh": 8906,
      "beki": 8907,
      "Â¨": 8908,
      "ãģŁãĤģãģ®": 8909,
      "shuffle": 8910,
      "ãģ®æ¡ģ": 8911,
      "qy": 8912,
      "éļĽ": 8913,
      "Ġ\"\",": 8914,
      "Ġ357": 8915,
      "ABCDEFGHIJKLMNOPQRSTUVWXYZ": 8916,
      "ãĤ³ãĥ¼ãĥī": 8917,
      "Ġ[],": 8918,
      "ĠLIM": 8919,
      "ĠTreeSet": 8920,
      "220": 8921,
      "FLOW": 8922,
      "nz": 8923,
      "Ġem": 8924,
      "ãģŀ": 8925,
      "ãģ®è¨Īç®Ĺ": 8926,
      "Ġforg": 8927,
      "Ġ0001": 8928,
      "ĠAOJ": 8929,
      "Ġeg": 8930,
      "Ġ\"+\"": 8931,
      "NP": 8932,
      "OI": 8933,
      "Ġ800": 8934,
      "Ġ'+'": 8935,
      "detail": 8936,
      "dynamic": 8937,
      "ea": 8938,
      "rfind": 8939,
      "ĠVD": 8940,
      "thread": 8941,
      "ĠUP": 8942,
      "]]:": 8943,
      "Ġ--)": 8944,
      "Ġcrosspoint": 8945,
      "Ġoverflow": 8946,
      "writer": 8947,
      "hq": 8948,
      "ĠOP": 8949,
      "olog": 8950,
      "arest": 8951,
      "7775": 8952,
      "500005": 8953,
      "æºĢ": 8954,
      "Ġinitvec": 8955,
      "Ġwant": 8956,
      "Item": 8957,
      "ĠReturns": 8958,
      "ä¾¿åĪ©": 8959,
      "nCk": 8960,
      "<<\")\";": 8961,
      "\"));": 8962,
      "9223372036854775807": 8963,
      "ruiC": 8964,
      "ĊĉĠĠĠĠĠĠĠĠĠĠĠĠĠĠĠ": 8965,
      "repetition": 8966,
      "Area": 8967,
      "abcde": 8968,
      "=[[]": 8969,
      ")|": 8970,
      "Ġâī": 8971,
      "))<<": 8972,
      "ĉĉĉĉĉĉ": 8973,
      "ĠREAD": 8974,
      "uture": 8975,
      "ï½©": 8976,
      "Ġ''.": 8977,
      "vowel": 8978,
      "880": 8979,
      "Ġdivmod": 8980,
      "ï¿½ï¿½ï¿½ï¿½ï¿½ï¿½ï¿½ï¿½ï¿½ï¿½ï¿½ï¿½ï¿½ï¿½ï¿½ï¿½": 8981,
      "chmi": 8982,
      "ãģ«éĸ¢": 8983,
      "ĠEx": 8984,
      "Ġmmin": 8985,
      ":\"<<": 8986,
      "header": 8987,
      "ĠĊĠĠĠĠĠĠĠĠĠĠĠĠĠĠĠĠĠĠĠ": 8988,
      "Ńå®ļ": 8989,
      "Fi": 8990,
      "******/": 8991,
      "Ġpcnt": 8992,
      "Ġmodify": 8993,
      "æ®µ": 8994,
      "uniform": 8995,
      "GO": 8996,
      "ctr": 8997,
      "Ġscores": 8998,
      "ĠCLOCKWISE": 8999,
      "3737": 9000,
      "Ġqpow": 9001,
      "ruic": 9002,
      "BO": 9003,
      "ĊĠĠĠĠĊĠĠĠĠĠĠĠ": 9004,
      "uX": 9005,
      "oldd": 9006,
      "åħ¨æİ¢ç´¢": 9007,
      "ĠFlow": 9008,
      "aabc": 9009,
      "Sa": 9010,
      "REATER": 9011,
      "909": 9012,
      "æ±": 9013,
      "copyOf": 9014,
      "ãĤ³ãĥ³ãĥĨãĥĬ": 9015,
      "ĠSeg": 9016,
      "getDistance": 9017,
      "ç·ļåĪĨ": 9018,
      "Ġ\"-\"": 9019,
      "(\"{": 9020,
      "Ġmemcpy": 9021,
      "æĵįä½ľ": 9022,
      "ãģĵãģĵãģ¾ãģ§": 9023,
      "ker": 9024,
      "DENI": 9025,
      "origin": 9026,
      "NNNNNNNN": 9027,
      "124": 9028,
      "ãģ§ãģ®": 9029,
      "ï¼¼": 9030,
      "ï½²": 9031,
      "hw": 9032,
      "Ġundigraph": 9033,
      "OUND": 9034,
      "appy": 9035,
      "Ġ((((": 9036,
      "tok": 9037,
      "dH": 9038,
      "æ¸¡": 9039,
      "DENIED": 9040,
      "wwwwwwwwwwwwwwww": 9041,
      "ãĤĴçĶ¨": 9042,
      "Ġcumsum": 9043,
      "æĢ§": 9044,
      "194": 9045,
      "inite": 9046,
      "Random": 9047,
      "ennec": 9048,
      "Ġreads": 9049,
      "DB": 9050,
      "vQ": 9051,
      "ï¼ģï¼ģï¼ģï¼ģ": 9052,
      "é£": 9053,
      "StringView": 9054,
      "Ġvtop": 9055,
      "ROVED": 9056,
      "Ġ'\\\"'": 9057,
      "ĠAi": 9058,
      ";&#": 9059,
      "ized": 9060,
      "ĠThread": 9061,
      "æ¡ģæķ°": 9062,
      "Ġsteps": 9063,
      "âłĢâłĢâłĢâłĢ": 9064,
      "4444444444444444": 9065,
      "ĠTemplate": 9066,
      "allocator": 9067,
      "Types": 9068,
      "post": 9069,
      "363": 9070,
      "//[": 9071,
      "LINF": 9072,
      "Ġ\"}\"": 9073,
      "Ġchmi": 9074,
      "direction": 9075,
      "æºĸåħ¥åĬĽ": 9076,
      "Ġlike": 9077,
      "Ġpartition": 9078,
      "Ġmvec": 9079,
      "ĠVPII": 9080,
      "Var": 9081,
      "ãĤĴè¿½åĬł": 9082,
      "xmax": 9083,
      "Ċĉĉĉĉĉĉĉĉĉ": 9084,
      "776": 9085,
      "Ġ201703": 9086,
      "digraph": 9087,
      "AQ": 9088,
      "foreach": 9089,
      "Ke": 9090,
      "Ġvertices": 9091,
      "å®¹": 9092,
      "Ġfour": 9093,
      "ãģ®åĢįæķ°": 9094,
      "delim": 9095,
      "Ġerat": 9096,
      "ï¼Ĵ": 9097,
      "ãģ®åł´åĲĪãģ¯": 9098,
      "ĠPOSSIBLE": 9099,
      "ãĤ¹ãĥĪãĥ©ãĤ¯ãĤ¿": 9100,
      "//================================================================": 9101,
      "405": 9102,
      "ratio": 9103,
      "âĸĪâĸĪâĸĪâĸĪâĸĪâĸĪ": 9104,
      "ĠæľĢå°ıåħ¬åĢįæķ°": 9105,
      "åıĤçħ§": 9106,
      "ttt": 9107,
      "APPROVED": 9108,
      "817": 9109,
      "ĠGcd": 9110,
      "5575": 9111,
      "Ġwait": 9112,
      "intersection": 9113,
      "ðŁĴ©ðŁĴ©": 9114,
      "eraser": 9115,
      "ãģĵãģ¨ãģĮ": 9116,
      "mset": 9117,
      "ãģĪãģªãģĦ": 9118,
      "gets": 9119,
      "zX": 9120,
      "Ġ'\\''": 9121,
      "³ķ": 9122,
      "unistd": 9123,
      "Ġ.-": 9124,
      "¦ãĥ¼": 9125,
      "Ġml": 9126,
      "Ġgt": 9127,
      "irange": 9128,
      "ãĥģãĤ§ãĥĥãĤ¯": 9129,
      "Ġ')))": 9130,
      "alphabet": 9131,
      "ĊĊĠĠĠĠĠĠĠĠĠ": 9132,
      "<<=": 9133,
      "*******": 9134,
      "ãĤ³ãĥ³ãĤ¹ãĥĪãĥ©ãĤ¯ãĤ¿": 9135,
      "DDDD": 9136,
      "Ġxb": 9137,
      "{{{": 9138,
      "store": 9139,
      "ãģķãĤĮãģ¦ãģĦãĤĭ": 9140,
      "ãģ§ãģ«": 9141,
      "åĬłç®Ĺ": 9142,
      "330": 9143,
      "Ġweights": 9144,
      "Ġmc": 9145,
      "Ġpresent": 9146,
      "Ġ{}\".": 9147,
      "Ġqueries": 9148,
      "clzll": 9149,
      "ĊĠĠĠĠĠĠĠĠĊĠĠĠĠĠĠĠĠ": 9150,
      "280": 9151,
      "Am": 9152,
      "cint": 9153,
      "ĠéħįåĪĹ": 9154,
      "SEGMENT": 9155,
      "1415926535897932": 9156,
      "5355": 9157,
      "Ġprogram": 9158,
      "409": 9159,
      "241": 9160,
      "LIST": 9161,
      "ĠBC": 9162,
      "ĠKey": 9163,
      "Wr": 9164,
      "])<": 9165,
      "Ġrows": 9166,
      "('.": 9167,
      "ãģ®ãĥªãĤ¹ãĥĪ": 9168,
      "eline": 9169,
      "èĩªèº«": 9170,
      "Ġgeti": 9171,
      "CAT": 9172,
      "hull": 9173,
      "Ġ<<\"\\": 9174,
      "Ġaug": 9175,
      "ĠPRO": 9176,
      "5735": 9177,
      "Operation": 9178,
      "ĊĉĊĠĠĠ": 9179,
      "Ġanss": 9180,
      "797": 9181,
      "251": 9182,
      "SX": 9183,
      "870": 9184,
      "<<\"[\";": 9185,
      "Ġlv": 9186,
      "Ġruiv": 9187,
      "Ġ72": 9188,
      "ĠTest": 9189,
      "qk": 9190,
      "878": 9191,
      "IF": 9192,
      "prv": 9193,
      "529": 9194,
      "LLD": 9195,
      "è¨ª": 9196,
      "DX": 9197,
      "acros": 9198,
      "ä½¿çĶ¨ãģĻãĤĭ": 9199,
      "Ġbody": 9200,
      "[][][]": 9201,
      "ï½Ń": 9202,
      "ĠPAIR": 9203,
      "ĳī": 9204,
      "keySet": 9205,
      "preve": 9206,
      "words": 9207,
      "xh": 9208,
      "996": 9209,
      "ãģ¨åĲĮãģĺ": 9210,
      "Ġsee": 9211,
      "cumsum": 9212,
      "car": 9213,
      "Ġxp": 9214,
      "Ġrlower": 9215,
      "Ġ327": 9216,
      "entrySet": 9217,
      "ç¤ºãģĻ": 9218,
      "]--;}": 9219,
      "ãģĭãĤĤ": 9220,
      "393": 9221,
      "Ġmemory": 9222,
      ":`": 9223,
      "0000000000000000000000000000000000000000000000000000000000000000": 9224,
      "Ġrh": 9225,
      "isei": 9226,
      "ãģ®åĩºåĬĽ": 9227,
      "ĠBigInt": 9228,
      "âĸĳâĸĳâĸĳ": 9229,
      "Ġreflect": 9230,
      "Ġoc": 9231,
      "alp": 9232,
      "ĠAllocator": 9233,
      "BY": 9234,
      "871": 9235,
      "Ġruiseki": 9236,
      "ĠFixPoint": 9237,
      "gine": 9238,
      "Ġtypes": 9239,
      "ãģĮåŃĺåľ¨": 9240,
      "Ġclosed": 9241,
      "HP": 9242,
      ",...": 9243,
      "ĠFraction": 9244,
      "Ad": 9245,
      ".`": 9246,
      "Ġcolumn": 9247,
      "Del": 9248,
      "Wk": 9249,
      "Ġdn": 9250,
      "uate": 9251,
      "7377": 9252,
      "vect": 9253,
      "(\"{}": 9254,
      "168": 9255,
      "Ġ...,": 9256,
      "eral": 9257,
      "Ġpiii": 9258,
      "ãĤ½ãĥĥãĥī": 9259,
      "ãĤ»ãĤ°": 9260,
      "Ġreachable": 9261,
      "Ġbridge": 9262,
      "gf": 9263,
      "thogonal": 9264,
      "<>>": 9265,
      ";;;;;;;;": 9266,
      "ï½´": 9267,
      "æ¶Ī": 9268,
      "ãĥ¡ãĤ½ãĥĥãĥī": 9269,
      "å®£": 9270,
      "Sz": 9271,
      "ĊĉĉĉĠĠĠ": 9272,
      "?????????????????????": 9273,
      "icate": 9274,
      "Ġ','": 9275,
      "(\"/": 9276,
      "351": 9277,
      "Ġchkmin": 9278,
      "Ġ']": 9279,
      "Cycle": 9280,
      "341": 9281,
      "']=": 9282,
      "Ġexponent": 9283,
      "3779": 9284,
      "-----------------": 9285,
      "Ġ'}';": 9286,
      "116": 9287,
      "Maxn": 9288,
      "permutations": 9289,
      "connect": 9290,
      "å®£è¨Ģ": 9291,
      "370": 9292,
      "reduce": 9293,
      "jt": 9294,
      "ĠFPRINT": 9295,
      "onest": 9296,
      "library": 9297,
      "540": 9298,
      "column": 9299,
      "Each": 9300,
      "ãģ¡ãĤī": 9301,
      "ãģ®æľ¨": 9302,
      "usa": 9303,
      "Ġdigraph": 9304,
      "xff": 9305,
      "xC": 9306,
      "Ver": 9307,
      "Ġzz": 9308,
      "çµ¶": 9309,
      "Ġsmax": 9310,
      "ĠboundType": 9311,
      "Yn": 9312,
      "ĠMT": 9313,
      "Ġchkmax": 9314,
      "246": 9315,
      "\\\\\\\\\\\\\\\\\\\\\\\\\\\\\\\\\\\\\\\\\\\\\\\\\\\\\\\\\\\\\\\\\\\\\\\\\\\\\\\\\\\\\\\\\\\\\\\\\\\\\\\\\\\\\\\\\\\\\\\\\\\\\\\\": 9316,
      "]}": 9317,
      "Compare": 9318,
      "ĠDOUBLE": 9319,
      "LCM": 9320,
      "çµ¶å¯¾": 9321,
      "196": 9322,
      "åĪĨåī²ãģĻãĤĭ": 9323,
      "MMMMMMMMMMMMMMMMMMMMMMMMMMMMMMMM": 9324,
      "Ġllinl": 9325,
      "SW": 9326,
      "plication": 9327,
      "ãģĨãģ¡": 9328,
      "TA": 9329,
      "dreamer": 9330,
      ")_": 9331,
      "oseconds": 9332,
      "dtd": 9333,
      "~(": 9334,
      "UFFER": 9335,
      "âķ¬âķ¬âķ¬âķ¬âķ¬âķ¬": 9336,
      "Ġsmallest": 9337,
      "inic": 9338,
      "aaaaaaaaaaaaaaaaaaaaaaaaaaaaaaaaaaaaaaaaaaaaaaaaaaaaaaaaaaaaaaaaaaaaaaaaaaaaaaaaaaaaaaaaaaaaaaaaaaaaaaaaaaaaaaaaaaaaaaaaaaaaaaaaaaaaaaaaaaaaaaaaaaaaaaaaaaaaaaaaaaaaaaaaaaaaaaaaaaaaaaaaaaaaaaaaaaaaaaaaaaaaaaaaaaaaaaaaaaaaaaaaaaaaaaaaaaaaaaaaaaaaaaaaaaaaaaaa": 9339,
      "Ġlibrary": 9340,
      "ãĤĪãģĨãģª": 9341,
      "gap": 9342,
      "asNumber": 9343,
      ")[::-": 9344,
      "ĠPossible": 9345,
      "lems": 9346,
      "blems": 9347,
      ":]))": 9348,
      "ĠINFTY": 9349,
      "å°ıæĸĩåŃĹ": 9350,
      "gu": 9351,
      "Ġ/\\": 9352,
      "suit": 9353,
      "Ġatt": 9354,
      "hest": 9355,
      "ĠGrid": 9356,
      "671": 9357,
      "DL": 9358,
      "jsp": 9359,
      "oSetup": 9360,
      "ined": 9361,
      "Ġrupper": 9362,
      "561": 9363,
      "))));": 9364,
      "NMAX": 9365,
      "111111": 9366,
      "215": 9367,
      "5005": 9368,
      "åŁŁ": 9369,
      "è¾¼ãģ¿": 9370,
      "YC": 9371,
      "Ġ_##": 9372,
      "#';": 9373,
      "GT": 9374,
      "PC": 9375,
      "ĠFactorial": 9376,
      "Ġpts": 9377,
      "gyaku": 9378,
      "565": 9379,
      "âĺĨ": 9380,
      "protector": 9381,
      "lens": 9382,
      "ç¹°ãĤĬè¿ĶãģĹ": 9383,
      "Ġorigin": 9384,
      "uuuu": 9385,
      "members": 9386,
      "ings": 9387,
      "Ġvtot": 9388,
      "ĠHERE": 9389,
      "8888888888888888": 9390,
      "*******/": 9391,
      "cmd": 9392,
      "5375": 9393,
      "Ġiv": 9394,
      "yl": 9395,
      "1600": 9396,
      "Ġvect": 9397,
      "ãģĦãģ¾ãģĻ": 9398,
      "ä½ľçĶ¨ç´ł": 9399,
      "&&&": 9400,
      "â¡": 9401,
      "Ġvn": 9402,
      "Ġ((*": 9403,
      "ç´łæķ°åĪ¤å®ļ": 9404,
      "ArrayDeque": 9405,
      "sf": 9406,
      "Ġbget": 9407,
      "éłĤçĤ¹æķ°": 9408,
      "cend": 9409,
      "Ġcmd": 9410,
      "bunbo": 9411,
      "Ġxãģ¨y": 9412,
      "xbf": 9413,
      "ĊĠĠĉĉ": 9414,
      "prob": 9415,
      "Orthogonal": 9416,
      "141592653589793238": 9417,
      "ĠisOK": 9418,
      "bw": 9419,
      "âķ¬âķ¬âķ¬âķ¬âķ¬âķ¬âķ¬âķ¬âķ¬âķ¬âķ¬âķ¬âķ¬âķ¬âķ¬âķ¬âķ¬âķ¬âķ¬âķ¬âķ¬âķ¬âķ¬âķ¬": 9420,
      "FLAG": 9421,
      "440": 9422,
      "ĠMove": 9423,
      "Ġborder": 9424,
      "ãģ®ä½įç½®": 9425,
      "elapsed": 9426,
      "åľ§ç¸®": 9427,
      "å£": 9428,
      "ĠName": 9429,
      "Ġket": 9430,
      "Ġpcomparator": 9431,
      "editor": 9432,
      "()),(": 9433,
      "ĠMat": 9434,
      "Now": 9435,
      "551": 9436,
      "841": 9437,
      "[[": 9438,
      "rh": 9439,
      "reas": 9440,
      "imize": 9441,
      "team": 9442,
      "ãģŀãĤĮ": 9443,
      "ntd": 9444,
      "Ġ!((": 9445,
      "bot": 9446,
      "warukazu": 9447,
      "//*": 9448,
      "uck": 9449,
      "Ðµ": 9450,
      "vo": 9451,
      "Ġya": 9452,
      "GF": 9453,
      "Ã©": 9454,
      "Ã°": 9455,
      "Ġfmt": 9456,
      "èĳī": 9457,
      "Ġfdsd": 9458,
      "mincost": 9459,
      "ãģĿãĤĮãģŀãĤĮ": 9460,
      "__<<\"": 9461,
      "ĠSPE": 9462,
      "840": 9463,
      "Ġ10000000000": 9464,
      "ãģªãģĮ": 9465,
      "*****": 9466,
      "Ġtak": 9467,
      "æľ¨ãģ®æł¹": 9468,
      "peek": 9469,
      "166": 9470,
      "steps": 9471,
      "ãģłãģ¨": 9472,
      "Ġmine": 9473,
      "éĽĨåĲĪãģ®ãĤµãĤ¤ãĤº": 9474,
      "¦ãĥ¼ãĤ¯ãĥª": 9475,
      "minx": 9476,
      "Ġvld": 9477,
      "230": 9478,
      "BM": 9479,
      "èĩ´": 9480,
      "Ġhell": 9481,
      "ĠUnaryOperator": 9482,
      "]\"": 9483,
      "****************************************************************": 9484,
      "504": 9485,
      "IMPL": 9486,
      "ĠAS": 9487,
      "WIN": 9488,
      "å¤§æĸĩåŃĹ": 9489,
      "imer": 9490,
      "lu": 9491,
      "åĪ°éģĶ": 9492,
      "};}": 9493,
      "ĠDX": 9494,
      "internal": 9495,
      "isupper": 9496,
      "è¾ŀæĽ¸": 9497,
      "693": 9498,
      "ighbor": 9499,
      "Ġload": 9500,
      "ctzll": 9501,
      "Ġ3600": 9502,
      "Word": 9503,
      "ama": 9504,
      "ãģĭåĪ¤å®ļ": 9505,
      "chma": 9506,
      "ĠENDL": 9507,
      "Ġstatus": 9508,
      "Ġqp": 9509,
      "ãģ¹ãģį": 9510,
      "aux": 9511,
      "591": 9512,
      "¦ãĥ¼ãĤ¯ãĥªãĥĥãĥī": 9513,
      "Ġmsi": 9514,
      "224": 9515,
      "Ġpropagate": 9516,
      "æ°": 9517,
      "<<\"]\";": 9518,
      "<<\"=\"<<(": 9519,
[...]
